, 146477596
. 127556238
▁w 53781632
▁i 39487514
▁się 31985514
▁na 29142731
▁z 28763310
▁ 22502683
▁nie 22469248
▁do 22388266
▁- 21533159
▁że 16648428
▁to 14986901
▁o 13424456
▁jest 11835654
i 10275919
a 9992036
- 9379155
? 9326523
▁– 9222822
▁( 9069552
e 9005345
▁W 8693649
▁a 8521547
o 8220756
: 8165710
z 6958634
▁— 6718398
▁przez 6427558
▁od 6339728
n 6281052
▁* 6272865
s 6212662
▁za 6206618
▁jak 6158206
▁" 6135532
▁po 5985485
▁tym 5625107
w 5369730
t 5299373
c 5293133
r 5113724
▁co 4926450
k 4885160
! 4737447
d 4674505
▁Nie 4637280
" 4635967
y 4615718
▁tego 4554530
) 4552906
m 4531021
▁tak 4174207
▁ale 4157418
p 4084663
▁dla 3891924
▁r 3730076
▁są 3669692
▁„ 3571440
... 3536335
▁które 3534407
u 3417564
j 3391117
▁jego 3379735
▁już 3377175
▁czy 3362339
▁roku 3358282
▁A 3347735
▁jej 3308376
▁ma 3298673
▁tylko 3298481
▁oraz 3285540
l 3277721
▁ze 3211026
▁go 3137686
▁tej 3116723
; 3035942
▁było 3007582
▁bardzo 2913701
▁I 2884641
▁przy 2865348
▁pod 2816111
▁był 2747850
b 2746048
▁ich 2614307
▁może 2591036
▁który 2569538
▁To 2532494
g 2496794
▁mi 2468959
▁będzie 2457399
▁pan 2429791
▁ten 2418732
▁Z 2385735
ka 2355858
▁jeszcze 2338533
▁być 2314972
▁mnie 2294522
▁jako 2272417
▁Na 2269838
▁lub 2263868
na 2225393
▁Po 2218236
▁sobie 2171635
▁1 2168316
▁mu 2155280
▁ustawy 2133229
li 2121091
▁też 2074867
▁by 2048507
▁tych 2041230
▁nad 2032255
▁Czy 2025310
▁jednak 1990160
▁bo 1931388
ki 1915119
▁te 1878521
▁także 1875019
h 1869435
▁przed 1862725
▁była 1824748
nie 1816072
▁również 1793490
ny 1765519
mi 1756499
cie 1755651
). 1723325
ta 1716276
▁u 1710258
B 1701890
▁żeby 1688957
ty 1651757
ne 1621365
▁tu 1606524
▁O 1594320
), 1585295
▁bez 1579827
▁aby 1576159
▁2 1564841
▁art 1561620
▁więc 1561442
ch 1553202
▁gdy 1537817
ła 1534022
▁Ale 1518085
▁ją 1489024
| 1472099
▁dnia 1461964
▁kiedy 1457707
▁która 1449635
sz 1449047
▁nawet 1434917
owi 1392565
ni 1372821
ce 1362755
▁lat 1362093
owe 1360622
▁został 1359364
▁nr 1340158
▁pana 1338446
▁m 1335947
le 1334929
▁można 1323209
▁3 1319538
▁ja 1296709
la 1293742
▁U 1289477
▁pani 1265249
▁tam 1263315
▁sposób 1263047
owych 1260840
▁których 1254190
▁Dziękuję 1253129
▁je 1248866
▁były 1243933
▁S 1239744
my 1227722
▁niż 1222253
▁pracy 1216949
ra 1214992
▁ta 1207392
▁Tak 1206918
". 1206550
by 1203542
▁on 1201816
” 1187602
▁gdzie 1183561
owy 1174953
' 1174462
in 1172806
▁nim 1171264
ną 1167126
A 1166630
▁4 1162799
▁państwa 1162018
da 1159525
▁Do 1157331
", 1147827
▁5 1142118
▁Co 1138474
▁Panie 1135271
▁teraz 1128048
owej 1123156
ły 1122339
owa 1112864
▁nas 1110447
ją 1110214
ów 1108916
ą 1106408
▁nich 1101264
dy 1092509
owego 1088156
▁sprawie 1083414
S 1071255
▁miał 1067219
f 1043558
▁Za 1041268
ski 1036517
ło 1034534
ci 1032747
ć 1029610
▁coś 1023849
em 1023417
▁we 1016287
2 1015338
ro 1012166
wa 1006794
▁wszystko 1004627
▁miejsce 1004611
▁6 1003263
▁Od 997686
ował 993508
ować 991537
▁jeśli 991065
▁ci 990098
te 986242
ku 986150
▁osób 984493
▁niego 984094
▁s 982956
▁K 981727
▁innych 980601
ca 979699
▁iż 978304
▁wy 976894
▁którzy 973205
ł 972679
▁zł 969046
▁Komisji 968281
., 964977
1 963263
▁powiedział 962720
/ 961288
nych 953188
▁którym 952232
ry 950186
ó 941888
P 941155
▁̋ 940844
▁wszystkich 939857
▁10 934436
an 931438
▁poseł 929446
▁latach 922858
to 921909
▁Jest 917958
no 914485
ko 909568
▁której 909161
▁7 908571
▁Proszę 900523
▁nic 898878
▁właśnie 898186
▁im 898085
3 897561
▁E 895343
▁prze 894533
▁ust 894354
anie 893372
▁chwili 892500
owania 892162
▁chodzi 891132
sa 888367
▁ani 884973
ma 884411
▁raz 883446
▁między 879539
▁8 878137
▁tę 878117
▁B 874321
▁P 873489
[ 872387
D 870344
▁Jak 866172
▁lecz 864214
▁siebie 863978
nym 863481
W 861809
▁związku 860839
▁M 858490
rze 857518
tu 856027
▁będą 855674
M 855370
re 854405
cy 854179
▁proszę 851202
ur 839864
ś 838150
ga 837632
▁Ja 829307
owym 827715
owanie 825114
nej 824299
ana 823373
nego 821314
▁takie 820933
▁Wy 820396
▁0 818308
je 815103
ska 813671
ową 813364
▁została 812851
▁zakresie 802394
▁de 802086
▁C 801543
▁albo 800750
C 799525
▁15 793396
▁więcej 791224
▁nam 789518
Ba 788571
▁niej 784403
▁T 782345
jąc 780691
▁bardziej 780393
▁ludzi 777256
▁9 777122
do 777114
st 774482
▁** 772321
kę 772231
cz 771746
▁16 770511
owane 769731
owany 768258
▁mają 767827
▁wiele 767515
▁D 765612
▁17 762852
si 762800
▁czasu 758744
▁wszystkie 757884
▁należy 757296
▁czym 756300
czy 756076
ane 755955
▁G 755555
K 754810
4 752452
▁Jeśli 749714
▁12 747502
▁potem 747300
ek 746137
jących 741715
O 741475
▁pytanie 739307
▁Polsce 737856
▁czasie 737495
8 736412
ia 736123
▁którego 735983
T 732698
ania 732360
▁roz 732091
▁sam 730944
▁powiedzieć 729219
▁prawa 727424
▁dobrze 726538
nia 726049
▁ona 724985
ja 723566
cja 722849
go 721242
jący 717166
▁czas 716635
dzie 716263
lo 712927
wi 712927
kiem 711853
9 710650
liśmy 708550
lu 706931
▁ku 705639
▁strony 705331
skiego 704934
ków 701116
jące 700759
▁No 700641
▁11 699796
▁Pan 698087
ę 694108
łam 693929
ego 692805
de 692606
wy 691856
▁dwa 687560
7 683856
▁mam 682626
▁części 680895
6 680738
▁uwagę 676390
▁14 668296
▁zawsze 666907
ką 666645
▁środków 665391
▁wszystkim 665354
▁Kto 665326
▁panie 664582
▁Polski 661650
▁życia 661234
▁F 660751
▁tutaj 660176
▁spraw 659425
▁jeden 657376
tów 657252
▁# 657071
za 656348
ż 655353
▁trzeba 655120
▁18 654329
▁kilka 654224
▁ty 653465
po 652914
łem 652592
any 652099
▁wtedy 651903
▁R 651093
▁20 647684
gi 643936
▁Bo 642784
ano 641448
▁domu 640351
▁podczas 640178
▁mamy 639757
5 639574
▁zostały 637089
▁13 637073
▁mogą 636348
▁ponieważ 634678
ń 632749
▁dzieci 630685
▁mógł 630637
▁II 630250
▁jeżeli 630029
▁aż 628255
▁jakie 627339
▁Przy 623661
wał 622344
▁życie 620130
owała 620022
▁jakby 618968
tem 617549
▁dotyczące 617049
mu 616275
▁p 615069
▁sytuacji 612204
▁celu 611691
.) 610460
▁którą 608661
L 606951
sta 605523
▁minister 604401
▁czyli 604288
▁Jeżeli 603970
ar 602828
▁stanie 602348
szy 601834
▁L 601408
▁później 601292
G 600004
”. 599802
▁J 599485
▁wielu 598127
ba 597175
▁nigdy 597116
N 596582
▁nią 591726
▁projektu 590757
▁swoje 589244
▁oczy 588657
▁kraju 587777
▁zaś 585349
I 584127
▁przypadku 583620
owana 583431
▁Ma 582948
Z 582745
▁Kiedy 582463
cze 579993
E 576777
▁inne 573736
R 572109
▁działania 571826
▁posła 570262
▁ministra 570145
skiej 568638
▁miała 567232
v 566531
bi 565564
▁musi 564345
sze 564108
pi 564027
▁temat 561874
ie 561639
▁wobec 560015
▁dwóch 559838
ał 559413
▁ktoś 557605
sza 556856
du 556808
en 556630
er 556237
mo 554599
owo 554580
owanych 554484
▁30 554312
▁głos 551127
▁taki 549236
▁Prze 548469
kami 548415
▁cię 546582
rzy 546111
J 545419
▁tys 543438
cję 542771
▁razem 542230
on 541706
▁k 541398
▁stycznia 540959
ały 540093
­ 539343
▁jestem 539112
▁wiem 537040
▁wie 536978
pa 536814
▁państwo 536437
▁H 536411
sy 535838
▁rzecz 534946
▁wieku 533571
U 532659
▁dlatego 532492
▁projekt 530755
▁1. 529031
▁zmiany 528553
▁natomiast 528504
jącego 528463
▁one 525219
Bo 525063
▁trzy 524371
cza 523857
czne 522265
▁Ko 521644
▁temu 521231
▁ramach 520287
skie 519154
▁poza 517525
▁posłów 514215
sk 513098
x 513060
▁sobą 512441
▁osoby 512032
▁takich 510860
wie 510807
▁część 508445
▁Może 508222
▁gdyby 505472
▁dalej 505061
owie 505055
▁pierwszy 504707
▁września 502789
▁prawo 501716
▁e 498930
▁sprawy 498537
▁kto 498514
0 498152
su 497437
dzi 496141
ow 496135
▁Bardzo 495963
▁uwagi 495799
F 493620
▁N 493573
▁poprawki 489054
rz 488771
skich 485956
▁. 485827
▁przeciw 485576
▁grudnia 485374
sie 484308
▁samo 483466
▁rzeczy 483036
cji 481986
▁mówi 481733
▁Pani 481249
▁przecież 479719
▁innym 478720
▁my 478228
▁ko 477606
▁prostu 477504
cki 475982
▁możliwości 475740
▁marca 475642
aniu 474826
▁bowiem 473655
▁Rady 472871
is 472606
▁jedynie 472553
wała 472472
▁wszyscy 472367
at 470083
ej 469885
▁d 469292
▁t 467891
▁podstawie 466709
kach 466440
ru 465618
▁gdyż 465203
▁informacji 464954
bo 464658
▁ponad 463678
or 463455
▁V 463385
skim 462228
▁mieć 461825
ści 461245
gu 460307
▁często 460154
jącym 459530
▁chyba 458569
ność 457533
▁2. 456609
▁tyle 456596
ani 455782
▁Ta 455615
▁słowa 455545
że 455148
▁Le 454749
▁25 454700
me 454594
▁października 454342
▁km 453833
▁swoich 453743
H 453534
nik 452688
czny 452099
▁nieruchomości 452007
▁rok 451090
▁pytania 451086
▁miejscu 449602
▁samym 449016
owali 448330
") 448172
▁pomocy 447928
▁maja 447615
▁Krakowie 446953
wać 446855
▁lipca 445992
▁naprawdę 445357
ję 445312
▁choć 445230
zy 445185
’ 444490
▁dni 444174
▁prawie 442937
▁drzwi 442896
▁panu 442865
▁czerwca 441807
▁chwilę 441059
▁stanu 439993
▁zgodnie 439733
▁świata 438167
sty 436781
▁cały 436694
▁Pod 436072
▁Komisja 435224
▁jednym 435148
▁lata 435096
jącą 433431
▁22 433257
▁dzisiaj 433041
ri 432534
▁ludzie 431495
▁razie 431135
▁zbyt 431000
owano 430505
▁wyżej 429034
▁no 428936
▁jaki 428313
▁czego 428104
▁wniosek 427798
▁rząd 427076
rem 427052
▁Był 426859
jąca 426209
▁Mi 425713
▁24 425292
▁re 425226
▁takiego 424929
▁myśli 424389
▁miasta 424174
cznych 423835
▁końcu 423386
▁b 423343
▁swoją 423178
▁Jego 422814
▁of 421880
▁Mam 421694
▁trochę 421384
▁lutego 421025
se 420579
cha 420530
▁byli 419934
▁(" 419446
ak 419388
”, 419374
co 417836
cją 417827
ge 416986
▁Warszawa 416946
▁sierpnia 416127
▁kwietnia 415902
V 415684
▁głową 415112
jącej 413387
▁in 412728
nymi 411682
▁przede 410248
▁sprawa 409971
▁jakieś 409737
▁Marszałku 409674
▁listopada 409575
ym 409478
▁drugiej 409264
▁Re 409255
▁zostało 408190
▁wraz 407668
▁odpowiedzi 407645
ałem 407454
anych 407348
▁kilku 407191
▁Gdy 407178
▁Pa 406946
▁Ro 406641
we 405662
cje 404290
▁ile 404241
wo 403124
am 402297
▁wcześniej 402118
ży 401791
cia 401042
▁oczywiście 400507
▁budżetu 400304
▁dopiero 400173
us 399767
▁np 399139
▁jakiś 399057
▁poz 398755
▁mln 398369
▁naj 398212
▁23 398175
mie 396854
▁człowieka 396476
▁19 396437
cznej 396159
▁rządu 396139
▁Kraków 395862
sko 395794
▁takim 394925
▁mogę 394431
▁g 394422
▁rodzaju 394346
▁zupełnie 394291
▁swoim 393614
▁ob 393393
▁działalności 393321
( 392866
px 391089
▁jednego 390909
▁Sejmu 390747
▁pkt 390519
▁szybko 390051
▁około 389270
ti 389012
al 388249
wali 387714
▁komisji 385942
▁wi 385929
▁powodu 385557
▁Mo 385438
ności 384272
ona 383714
▁Li 383605
ter 383252
▁li 382849
nę 382771
▁coraz 380993
so 380869
ię 380495
▁udział 379424
▁wśród 379404
▁dwie 379286
▁2012 379152
▁: 378379
▁dzień 377424
▁będziemy 376582
▁okresie 376393
▁przykład 376391
▁wysokości 376372
ński 375968
▁porządku 375667
▁Teraz 374975
▁27 374939
▁powiedziała 374437
▁Europejskiej 374147
ście 373948
▁jednej 373910
▁Te 372924
▁miejsca 372704
▁26 371282
▁jedno 371067
▁względu 370223
▁nimi 370024
pe 369686
▁n 369654
▁zarówno 368995
▁ciągu 368382
▁3. 368119
▁Sejm 366591
▁ro 366110
▁nikt 365894
▁obecnie 365859
▁sprawę 365782
▁Unii 365484
os 364626
▁głosu 364273
▁zrobić 364210
ało 364175
▁realizacji 363593
▁początku 363067
rza 363039
▁środki 361641
▁mniej 361402
el 361251
cka 360394
▁przepisów 360381
▁dniu 360357
▁ok 359757
▁różnych 359632
▁28 359461
▁chce 359362
ul 359315
ckiego 359276
▁możliwość 358602
> 357832
▁Dlatego 357687
▁systemu 357313
▁c 356937
czna 356879
▁działań 356754
ck 356658
ść 356627
▁człowiek 356545
▁stronę 356228
▁taka 355943
▁Mar 354886
▁zm 354410
▁postępowanie 354320
cznego 354253
tach 353969
▁swojej 353318
owaniu 353094
▁wówczas 352663
▁De 352551
ha 352547
▁Ten 352375
▁stanowisko 352111
▁prowadzone 351807
▁postępowania 351004
▁swego 350678
▁ziemi 349058
▁problem 348414
cznym 347242
▁Natomiast 347117
▁pierwsze 346938
▁21 346733
tami 346459
stwa 346202
▁mówił 345622
cu 345348
▁dlaczego 345262
od 344765
▁takiej 344624
▁Wysoka 344264
▁ustawie 344170
▁rozwoju 343959
▁dotyczy 343378
▁pół 343365
▁2010 342856
tą 341607
▁Sa 341337
▁dość 341291
▁prac 340069
▁swój 339682
▁przeszłości 339584
man 339499
▁będę 339490
▁mój 338530
▁dziś 338476
▁wojny 338411
▁l 337217
▁29 337081
as 337041
▁najbardziej 336800
▁stało 335874
ste 335475
▁ustawa 335269
▁jedną 334814
▁końca 334344
▁długo 334311
▁rękę 334069
▁każdy 333757
▁ni 333629
▁Oczywiście 333415
owały 333230
▁zatem 333192
▁da 332224
▁pewno 331489
bu 331395
▁Al 330940
▁ogóle 330926
▁każdym 330916
▁f 330538
owski 330304
lne 330218
▁mo 329834
ską 328258
▁kierunku 327910
▁taką 327519
▁grupy 326452
▁zaczął 326327
bie 326285
▁system 326134
stwo 326030
▁nagle 325997
▁zmian 325748
▁według 325577
pie 325226
▁ręce 324973
fi 324546
om 324445
lem 324168
▁prokuratury 324160
▁drogi 323858
▁ka 323774
▁moje 323726
▁Jan 322065
▁poprzez 322019
▁możemy 321967
ńskiego 321591
ych 321468
▁rynku 321453
▁chciał 321409
▁twarz 320767
▁Ra 320704
aniem 320489
th 320483
▁pomiędzy 319838
▁znowu 319760
▁danych 319270
owymi 319211
wanie 319087
▁Ba 319022
▁ul 318700
▁całą 318532
▁obok 318292
nem 317895
▁znajduje 317536
▁pro 317434
cą 316794
▁prawda 316263
▁2008 315978
▁powinien 314630
▁mimo 314535
▁2009 314365
di 314221
wia 313986
▁śmierci 313782
▁niektórych 313723
2, 313612
▁oni 313415
▁mieli 313038
czą 312666
▁Tu 312230
▁Dlaczego 311291
▁chcę 310987
pu 310794
▁przewodniczący 310739
▁wynika 310396
cyjnych 310239
ton 310204
owanego 310037
▁La 309222
▁zostanie 309167
dził 309133
▁Ka 308232
▁Przez 308094
▁głowę 307774
▁stosunku 307653
▁le 307570
▁kryteria 307544
▁naszej 307383
▁III 307334
1, 307246
% 307066
▁trzech 306732
▁ciebie 306720
▁pokoju 306048
▁Państwa 305954
▁rzekł 305943
▁pa 305824
▁decyzji 304927
▁następnie 304926
ńskiej 304370
▁2004 304319
▁mogła 303849
▁zwłaszcza 303842
▁nowe 303738
é 303509
ary 303356
nął 302839
▁wreszcie 302809
▁terenie 302640
▁byłoby 302499
▁chciałbym 302492
py 302290
▁obu 302121
▁koniec 301862
▁wsi 301773
▁organizacyjnych 301335
czną 301135
▁poprzednim 300977
▁Pi 300889
▁Polskiej 300547
▁żadnych 300537
▁typu 300531
▁zmianie 300354
▁wniosku 299705
▁ochrony 299374
▁nadal 298128
wały 297843
▁stanowi 297061
▁dzięki 296850
▁wydaje 296837
aną 296592
▁tą 296316
▁innymi 296210
▁Polska 296130
nu 296040
▁związane 295695
▁stronie 295547
▁naszych 295502
▁innego 295495
▁pracowników 295445
▁lepiej 295329
▁2013 295101
▁programu 294967
▁2000 294954
▁stał 294925
▁aktualnie 294742
um 294733
▁znaczy 294088
▁Ministrów 293984
▁ba 293856
bym 293462
▁ru 293138
▁punktu 293021
▁dużo 292700
▁Ze 292554
▁Ch 292485
▁wątpliwości 292380
▁the 291798
▁bu 291774
▁dotyczącym 291708
▁przekazania 291641
tor 291564
▁polski 291425
▁2007 291141
▁zdrowia 290881
▁drodze 290541
▁Są 290412
▁jednostkach 290375
un 290352
io 290344
zm 290335
,5 290261
▁2, 290237
▁Rzeczy 290156
▁kontroli 290129
wania 290063
▁moim 289859
▁Prokuratorowi 289771
▁skład 289707
ler 289580
▁Regionalnemu 289252
▁2006 289002
ve 288911
▁stan 288634
▁twarzy 288271
▁Chciałbym 288256
pospolitej 288215
es 288055
▁zadań 287900
▁tzw 287882
▁31 287579
▁Ku 287406
▁naszego 287398
▁polskich 287156
et 287030
3, 286539
▁rodziny 286386
▁publicznych 286157
▁wskazane 285794
der 285130
owanej 285109
▁pewne 284626
▁2011 283965
▁j 283691
sto 283266
▁musiał 283102
▁rzeczywiście 283050
▁głosowania 283029
▁nieco 283002
00 282456
anego 282346
cznie 282124
▁Roz 281823
▁wciąż 281799
▁Lu 281406
▁znów 281379
▁ra 281089
▁Ar 280580
▁gminy 280400
lny 280213
▁świecie 280185
▁pierwszej 279707
▁/ 279476
▁szczególnie 279376
▁Ministerstwo 278726
▁Spraw 278655
▁Już 278644
im 278375
▁la 277847
▁(19 277617
dzić 277590
▁praw 277553
▁usta 277250
▁Sz 277134
be 276642
lnych 276175
▁nowych 275899
▁nasze 275688
▁2001 275096
dem 275044
▁podległych 275043
▁kwestii 274735
▁całej 274207
il 273255
cę 273176
tę 272823
czka 272724
ing 272236
▁natychmiast 272134
rami 272100
▁drugi 271913
dę 271355
▁prawidłowości 271096
▁pierwszym 270878
▁Wi 270608
▁Izbo 270567
▁Me 270545
anej 270427
▁wyniku 270053
▁organizacji 269810
ckiej 269788
▁polskiego 268518
▁podmiotom 268443
cho 268359
▁szkoły 268269
▁Ty 268140
▁brak 268086
▁odpowiedzia 267863
▁pomoc 267830
19 267487
▁100 267254
▁samego 267004
▁2005 266795
5, 266506
▁Europy 266410
^ 266398
▁miały 266210
▁St 265847
▁wody 265781
▁znacznie 265331
Y 265286
▁mówić 265055
▁Potem 264752
▁razy 264618
▁Myślę 264531
owaniem 264268
łu 263462
▁ła 263281
6, 263037
▁Ha 262773
2. 262660
▁głowy 262633
▁nadzieję 262560
▁wyłącznie 262272
owało 261900
▁bądź 261889
– 261357
▁przygotowawcze 261100
▁podatku 261086
▁' 261076
▁Jednak 260519
▁chociaż 260309
ców 260275
▁4. 260199
20 260190
8, 259894
▁przeciwko 259787
▁wskazanej 259367
ad 259338
▁sali 259135
▁jednostki 258969
anym 258756
▁zapytaniu 258657
▁myśl 258599
son 258558
▁właścicielom 258264
▁jesteśmy 258213
▁Go 258046
▁polityki 257945
▁jedna 257691
nika 257547
▁mieszkańców 257517
▁pi 257319
ze 257252
4, 256945
▁Je 256767
▁Sta 256709
lin 256359
7, 256304
ii 255912
vi 255480
▁Gminę 255348
▁Miejską 255288
▁jakim 255130
10 254770
▁zadania 254746
▁zapytał 254732
▁raczej 254728
czenie 254518
▁członków 254508
▁2017 254089
1. 254053
▁2003 253830
nię 253826
▁jednocześnie 253775
▁We 253736
▁My 253670
▁2002 253574
▁działalność 253506
aty 253492
▁sto 252946
fa 252807
▁naszym 252774
▁sama 252541
rach 252427
▁Ministerstwa 251847
owanym 251779
lności 251552
▁dyskusji 251410
▁2014 251120
▁wartości 251063
▁Pro 251047
▁wiedział 250927
cyjne 250537
▁nocy 250466
▁zasady 250151
▁mojej 250093
kom 250001
▁Plik 249678
▁pracę 249246
dni 249133
▁Ru 248935
▁+ 248742
ach 248316
-19 248054
▁Bu 248048
▁przepisy 247922
▁gospodarki 247540
▁swojego 247527
▁mało 247423
▁imieniu 246521
▁Ś 246400
By 245976
ang 245921
▁Jeszcze 245870
9, 245863
▁trakcie 245710
▁świat 245647
▁jaką 245234
▁Tylko 245055
▁mną 244918
zie 244902
ża 244784
▁On 244530
kie 244520
▁przynajmniej 244485
▁odparł 244417
ly 244389
▁liczby 243997
▁cel 243832
▁Warszawie 243731
▁umowy 243576
▁Bar 243343
▁Se 243253
▁służby 243212
▁jesteś 243176
▁RP 242871
sem 242800
▁powinna 242756
▁św 242753
▁; 242686
ńska 242396
▁spełniałoby 242376
▁pieniądze 242311
▁In 242295
▁inaczej 242061
lnego 242055
▁posiedzeniu 241995
▁uprzejmie 241938
▁Minister 241600
▁poszczególnych 241551
▁głównie 241440
▁miało 241215
▁odpowiedź 241154
▁Kategoria 240823
▁okres 240815
▁produkcji 240762
▁mogli 240667
▁niemal 240130
▁The 239928
▁opinii 239774
▁polskiej 239724
▁życiu 239232
= 239192
nęła 238871
▁dokładnie 238839
▁2016 238811
czki 238253
▁was 238169
▁mówiąc 238117
ńskim 238073
▁Ga 238042
▁So 237804
nąć 237637
cyjnego 237527
▁40 237306
▁momencie 237168
ho 237032
dz 236968
▁zna 236918
jemy 236853
sku 236811
▁ch 236799
▁możliwe 236748
▁dotyczących 236173
▁wyraźnie 236169
▁Według 235958
tek 235847
▁Nr 235662
▁pewien 235404
chy 235318
ju 235023
▁50 234969
▁program 234852
owałem 234725
czył 233779
▁ruchu 232726
niem 232609
▁rozwiązania 232609
▁wo 232542
▁oznacza 232483
▁ciała 232258
▁Była 232135
czek 232053
ner 231933
▁społecznej 231719
uje 231632
rę 231496
12 230689
▁postaci 230687
Dz 230610
wszy 230574
▁Dla 230545
▁wokół 230218
▁Jestem 230208
niu 230198
▁2015 230065
▁Prawo 230040
▁opieki 229918
cyjnej 229719
ob 229516
▁zanim 229253
lę 228894
▁fakt 228841
lan 228567
▁informacje 228500
▁wcale 228182
dą 227906
▁zaraz 227801
▁Pana 227779
wą 227339
▁względem 227331
▁Ni 227106
▁różne 227022
one 226972
ckim 226803
▁przedsiębior 226740
Oklaski 226737
▁inny 226537
▁zostać 226454
▁zdaniem 226364
▁bar 226303
▁1999 226254
▁bezpieczeństwa 225967
dów 225856
▁ponownie 225619
▁Pe 225383
va 225067
ali 225064
▁Ponadto 225063
▁Senatu 224593
▁kar 224548
▁drugie 224408
rów 224329
▁stanowiska 224293
▁posiada 224153
▁istnieje 224117
hi 224033
czyć 223967
ckie 223806
▁ustaw 223745
ji 223182
▁tytułu 223126
▁tysięcy 223086
▁charakter 223021
szą 222986
▁pośle 222916
▁si 222769
ciu 222743
▁swej 222603
▁Wie 222323
▁związanych 221949
łeś 221899
▁, 221798
▁Da 221711
▁administracji 221471
▁Sam 221291
▁udało 221203
0, 221197
▁h 221170
▁razu 221128
owaną 221066
▁sie 220724
▁Be 220707
▁środowiska 220692
▁pełni 220395
2) 220305
▁powinno 220281
ź 220232
ke 220224
▁kobiety 219966
▁masz 219911
▁poziomie 219694
den 219617
zi 219383
▁Lo 218976
▁ojciec 218897
nił 218873
▁historii 218834
rek 218527
▁sytuacja 218302
▁wrażenie 217780
▁prace 217741
lna 217703
art 217495
▁jednostek 217383
▁świadczeń 217377
▁niczym 217293
▁zresztą 217285
ier 216994
▁kosztów 216891
▁administra 216877
▁widzę 216486
owskiego 216471
▁Stwierdzam 216379
▁cztery 216293
3. 216248
▁Poseł 216156
▁[ 215563
▁dziecko 215316
▁He 215010
łe 214896
▁właściwie 214810
▁usług 214712
▁widzenia 214511
▁mowa 214441
▁całe 213820
▁Su 213780
▁moja 213703
▁niech 213622
▁znaleźć 213441
▁nowego 213406
▁Nic 213256
czony 212810
▁Zgodnie 212789
▁pie 212688
▁województwa 212631
1) 212456
ber 212367
▁Si 211884
▁du 211781
▁siły 211768
▁powinny 211637
▁ha 211518
nią 211423
▁su 211302
15 211235
ckich 211162
▁sz 210909
▁Ob 210846
▁miasto 210838
▁Ministra 210644
▁Szanowny 210605
czych 210604
▁Niech 210268
▁Gdyby 209787
▁miesięcy 209603
▁kiedyś 209600
▁trudno 209550
▁żadnego 209444
▁powie 209439
ster 209141
▁ojca 209121
▁An 208916
▁większość 208872
▁samej 208824
▁• 208773
▁... 208010
▁Nawet 207978
nienie 207891
▁szkół 207837
les 207745
▁35 207725
lnej 207484
▁zwrócić 207258
kowi 207247
▁projekcie 206863
▁góry 206816
▁obraz 206728
nienia 206499
▁mocy 206450
▁par 206304
▁Chodzi 206296
–19 205865
▁5. 205732
▁całego 205613
he 205556
▁potrzeby 205344
▁stopniu 205060
▁? 205027
▁dom 204992
▁and 204918
▁Kar 204632
czone 204453
— 204324
▁panią 204251
▁rozporządzenia 203801
sia 203445
ąc 203428
dzenie 203274
nek 203263
ent 203262
▁proces 203011
ren 203005
▁dzieje 202800
▁władzy 202794
▁linii 202679
▁wymaga 202534
lnym 202136
ir 202007
▁Polskiego 201966
▁X 201670
▁sprawach 201583
▁plan 201569
▁liczba 201068
▁pieniędzy 200896
▁Jej 200882
▁Skarbu 200838
▁Tam 200512
dach 200491
9) 200444
czyła 200421
ony 200238
▁Y 199952
▁przyjęcie 199626
▁Przystępujemy 199582
ron 199280
18 199161
dzenia 198910
zu 198843
▁muszą 198677
tki 198643
lenie 198308
żenie 198178
▁Dobrze 198167
] 198037
tom 197845
▁samorządu 197729
6) 197600
▁Du 197455
▁Wa 197360
ley 197351
czenia 196960
▁wiadomo 196945
▁Finansów 196383
▁każdego 196209
▁34 196105
▁kolei 195947
▁całym 195830
▁Chcę 195723
▁kultury 195585
▁SA 195482
▁dziecka 195471
▁najmniej 195439
▁czasem 195390
▁tymi 195268
▁Ministrze 195187
▁minut 194918
▁Przecież 194819
13 194623
▁pewnością 194615
▁drogę 194585
▁Francji 194358
▁pierwszego 194322
4. 194160
ok 194155
▁§ 194137
á 194082
▁33 193962
▁Ne 193866
▁wolno 193619
dza 193497
cyjny 193347
cyjnym 193209
niej 193154
tych 193060
dziła 193038
eś 192884
▁1998 192878
▁pozycji 192866
▁gra 192817
amy 192629
▁współpracy 192594
▁całkowicie 192592
czej 192418
tne 192415
▁Otóż 192340
▁daleko 192095
tym 192080
czego 192000
ud 191674
▁rolę 191640
▁słów 191431
▁kobiet 191289
▁lo 191212
ver 190970
che 190951
aka 190916
▁inwestycji 190876
rzę 190790
7) 190738
res 190707
▁ostatnich 190698
@ 190466
len 190416
▁senator 189898
ut 189698
▁Trzeba 189677
▁warunków 189505
14 189458
▁rozumiem 189438
16 189247
tra 189238
ńskich 189007
▁Funduszu 188991
▁nasz 188946
▁3, 188889
8) 188873
▁Ca 188751
▁znaczenie 188659
and 188573
▁ży 188570
▁instytucji 188336
▁kon 187834
▁spółki 187802
▁działa 187673
5. 187570
nicy 187428
▁musimy 187354
lność 187321
▁ww 187263
sen 187225
nością 187158
▁Należy 187049
▁wydatków 187013
cami 186984
▁br 186913
ant 186573
▁45 186464
▁swych 186361
▁parę 186324
▁stąd 186323
dze 186210
▁pory 186207
▁kwestia 186124
▁gmin 186093
ata 185783
▁1, 185692
▁powierzchni 185601
▁Zdrowia 185464
▁wzrost 185452
* 185417
▁powiecie 185243
▁szy 185241
The 185003
▁wiedzieć 184901
▁1997 184835
▁mocno 184660
▁spojrzał 184579
▁robić 184546
▁koszty 184498
łą 184317
▁drugim 184307
ników 184017
▁pięć 183997
min 183721
czu 183684
żenia 183511
▁spytał 183501
▁widać 183409
jpg 183392
▁sta 183392
▁Ponieważ 183282
▁dwu 183149
▁pła 183125
▁muszę 183107
5) 183097
wany 183065
▁me 182930
▁posiedzenia 182891
it 182624
▁Wo 182472
▁Ry 182310
ące 182203
lą 182090
▁stała 182083
▁znalazł 181717
▁sp 181715
▁dane 181637
▁sił 181637
▁drugiego 181458
▁Wszystko 181412
▁cen 181402
▁zasad 181380
▁posiedzenie 181290
nić 181273
stów 181246
3) 181199
▁mojego 181142
▁warunki 181095
▁~ 180893
gen 180872
▁Przed 180853
▁skoro 180720
▁wstrzymał 180625
8. 180379
cjach 180329
▁ciało 180300
▁publicznej 180261
6. 179770
_ 179769
▁następujące 179495
zacji 179104
wane 179052
▁Jana 179047
4) 179037
▁ry 179008
fe 178984
▁poprawkę 178876
▁czynności 178846
▁braku 178812
cić 178637
▁dy 178523
jącymi 178478
▁prowadzi 178433
ący 178285
X 178052
▁każdej 178038
▁ono 177673
▁wpływ 177566
~ 177398
17 177268
lenia 177231
ścią 177125
▁pomocą 176983
wało 176956
lar 176579
per 176038
š 176014
▁metrów 175990
▁36 175923
▁sa 175922
▁badań 175919
Be 175890
▁pu 175871
▁formie 175862
▁ważne 175759
▁wynosi 175586
▁Car 175549
▁gdzieś 175213
▁większości 175189
▁żołnierzy 175160
sów 175076
▁walki 175019
ciem 174951
▁dobre 174811
▁akcji 174679
▁Ho 174515
▁duże 174471
▁prawnych 174299
9. 174210
dź 174143
▁wieś 174122
▁finansowych 174104
▁podobnie 174060
▁syn 173995
czym 173890
▁nami 173757
▁państw 173719
lnie 173438
▁żadnej 173341
▁zwykle 173321
ten 173229
▁robi 172956
▁Więc 172915
▁potrzeb 172828
▁Wszyscy 172823
war 172794
▁(18 172720
▁mężczyzn 172492
▁zaczęła 172330
▁niczego 172317
▁Jakie 172216
▁przyjęciem 172152
nach 172089
▁ustawą 171976
▁nowy 171913
▁poprawek 171902
▁króla 171739
stą 171707
ya 171585
▁zakresu 171552
rą 171228
▁wygląda 171212
▁Narodowej 170970
▁El 170934
nami 170799
▁bi 170773
ff 170731
Nie 170701
▁mie 170634
25 170305
▁Można 170266
lony 170261
rom 170006
▁wa 169912
▁2018 169828
▁gmina 169767
gra 169447
▁daje 169273
7. 169188
▁Bez 169155
tego 169067
ór 168955
▁sy 168783
▁zespołu 168328
ez 168302
▁Pracy 168245
▁przedmiotem 168219
▁lu 168128
rzu 167935
▁Mamy 167885
▁powoli 167849
▁Obecnie 167834
▁poważaniem 167766
▁ludności 167723
ina 167666
▁1990 167633
▁Gu 167629
▁zapis 167610
▁klasy 167512
▁nowo 167501
dzą 167385
niony 167317
▁myślę 167223
▁systemie 167191
▁38 167102
anu 167064
▁Wydaje 167004
▁wam 166979
▁Nigdy 166893
▁odpowiedział 166686
czał 166532
▁finansów 166467
▁kobieta 166429
▁energii 166427
▁górę 166369
▁moich 166254
▁niepełnospraw 166195
▁śmierć 166183
ono 166166
▁moją 166143
dnie 165982
stu 165834
nione 165784
▁32 165416
11 165388
▁budowy 165224
▁panów 165159
▁Boga 165147
lon 165051
30 164954
▁sieci 164852
▁sytuację 164838
▁decyzję 164733
▁al 164643
▁Było 164632
▁godziny 164613
▁Mimo 164575
▁wielkie 164570
▁widział 164459
▁województwie 164397
lone 164379
▁zabrać 164372
▁rozwiązanie 164356
▁x 164210
lną 164161
▁miałem 164128
szcz 164104
▁Andrzej 164022
żyć 163929
stra 163860
▁Jako 163854
ących 163847
▁Piotr 163825
ine 163769
▁Nad 163730
▁Tym 163569
▁otrzymał 163539
▁Rozumiem 163375
żył 163359
▁byłem 163345
cach 163298
▁Ki 163242
łów 163165
prze 163141
▁Sch 163139
▁nowej 162864
▁Wtedy 162801
▁dziękuję 162656
▁Ri 162570
▁kwoty 162534
▁obywateli 162512
▁obowiązek 162421
▁noc 162403
▁badania 162394
▁najpierw 162390
▁Podczas 162322
▁imię 162271
iu 162179
▁rady 162106
.: 162017
▁mogły 162000
owiec 161917
▁000 161816
dzę 161718
▁Ju 161710
ard 161623
wu 161552
▁Mu 161424
▁tj 161387
▁Chyba 161368
Po 161358
▁nogi 161097
▁spo 161076
▁wypadku 161044
▁Pu 160794
▁bezpośrednio 160757
▁zmiana 160569
▁czegoś 160449
▁Nikt 160407
▁Ci 160400
▁warunkach 160392
▁całości 160336
▁broni 160334
▁Or 160324
zo 160271
40 160240
▁Ber 160015
▁oto 159973
▁sami 159945
szu 159922
chu 159881
▁37 159857
▁społecznych 159815
▁nauki 159755
▁ga 159683
▁ode 159426
▁War 159363
▁oczach 159268
▁wypowiedzi 159217
dami 159170
▁6. 159148
▁cz 159076
lat 158961
▁= 158837
▁mówię 158703
▁pytań 158625
▁wniosków 158392
kowe 158368
▁so 158363
tni 158210
▁rozwój 158182
▁Zapytanie 157959
▁rze 157887
▁mógłby 157818
▁bym 157725
▁funkcjonowania 157642
rzył 157605
▁ce 157488
▁se 157473
▁tytuł 157442
▁zostaną 157428
▁osoba 157349
chi 157258
▁op 157253
gar 157251
owaliśmy 157218
cem 157115
▁okazji 157086
ran 157079
▁IV 156979
wił 156966
▁wiesz 156959
▁godzin 156885
▁Sejmie 156730
▁woli 156689
▁uda 156676
▁terytorialnego 156624
▁krwi 156594
▁Sto 156543
▁powiedziałem 156542
▁problemy 156460
kowa 156378
▁dobry 156353
▁projektów 156320
50 156231
nów 156139
kowy 155985
▁gry 155933
▁szczególności 155912
▁San 155777
lach 155583
cyjna 155496
▁Bóg 155369
▁własne 155314
żony 155283
▁sko 155149
▁światowej 155109
▁mieście 155060
▁celem 155035
▁tra 154969
▁pewnym 154884
▁przyszłości 154721
ńskie 154690
tar 154575
▁matka 154541
▁Wiem 154506
▁informuję 154486
tr 154354
▁60 154213
▁dół 154179
▁John 153848
▁ruch 153784
▁powrotem 153776
▁ustawę 153762
tro 153751
▁głosem 153731
mia 153653
▁prezesa 153649
▁Stanisław 153640
▁niez 153423
▁słyszę 153404
ol 153300
60 153067
▁przepis 153034
▁firmy 152881
0. 152757
70 152576
▁jaka 152471
tnie 152455
▁słowo 152415
▁wnioski 152297
owości 152088
▁równie 152010
gie 151793
ich 151790
▁inni 151646
▁powiem 151641
▁Wil 151609
▁blisko 151470
▁głosów 151374
▁miejsc 151284
com 151239
▁dobra 151223
................ 151184
▁treści 151153
▁dzie 150978
▁zamiast 150891
jo 150675
▁stron 150460
tyczne 150422
▁USA 150417
▁poziom 150378
▁Poza 150339
▁ministrze 150328
▁miejscowość 150262
Ł 150206
▁pewnie 150203
jem 149992
tora 149989
▁skąd 149854
▁gminie 149797
%. 149609
▁zawiera 149507
▁kra 149454
▁1996 149444
▁pas 149441
▁cała 149383
▁znak 149281
▁klubu 149176
▁mld 149084
wę 148884
▁an 148834
niejsze 148784
▁woj 148697
pro 148609
▁propozycji 148457
▁0, 148448
▁46 148427
▁pe 148419
▁dać 148395
▁charakterze 148392
▁Fa 148379
▁swe 148340
▁cicho 148222
wano 148174
▁punkt 148174
▁całkiem 148126
80 148110
▁problemów 148103
▁ł 148001
▁Marszałek 147981
▁dr 147755
▁polega 147685
ss 147671
tka 147497
▁ręką 147494
owani 147404
▁realizację 147311
45 147233
▁wiemy 147059
ng 147008
▁zasadzie 146994
▁przedstawicieli 146975
▁pomyślał 146746
▁ciągle 146683
▁Rząd 146575
▁zrobił 146548
ks 146530
▁podkreślić 146318
▁wielki 146284
men 146246
Ĺ 146100
▁oceny 145954
▁wzrok 145921
▁Di 145852
▁społeczeństwa 145822
▁własnych 145778
ment 145758
▁wiedzy 145619
▁niedo 145580
owicz 145483
:0 145346
▁mogło 145257
▁poprawka 145228
▁Sie 145118
▁lekko 145016
▁Jednocześnie 144992
▁Boże 144947
▁1994 144872
▁ulicy 144786
czo 144743
▁obszarze 144591
▁Narodowego 144582
wałem 144523
▁planu 144476
▁Kon 144382
▁Gra 144334
▁zespół 144280
▁sk 144214
▁polskie 144171
▁odpowiada 144150
▁mniejszości 144071
▁cie 144011
▁państwu 143963
▁pole 143854
▁proponuje 143781
▁którymi 143775
▁XX 143648
▁same 143631
▁kolejne 143570
czyli 143465
▁dał 143401
▁swą 142982
▁król 142898
ien 142763
%, 142619
szym 142591
23 142549
▁Rozwoju 142530
cjami 142492
▁wprost 142415
▁zamie 142332
▁zapytać 142240
▁48 142213
dzone 142166
▁stwierdził 142122
▁200 142102
▁uchwały 142068
▁kogoś 142059
90 142052
▁serca 141948
▁mężczyzna 141858
▁Wszystkie 141819
▁ziemię 141803
▁Następnie 141772
▁żaden 141738
▁poli 141734
▁Miał 141729
▁świadczenia 141668
▁rozwiązań 141550
▁Fi 141490
▁podkomisji 141462
▁dotychczas 141458
wal 141243
czę 141088
scy 141047
mów 140947
▁drugą 140941
rzenie 140936
lek 140918
wym 140862
szych 140826
let 140729
zna 140727
cił 140705
kar 140618
▁wolności 140564
▁zauważył 140399
tk 140287
towych 140221
▁mar 140128
▁stać 140128
▁czterech 140112
ost 140044
▁czynienia 139896
▁innej 139827
emu 139798
ral 139795
24 139751
▁znajdują 139748
niki 139615
▁ki 139502
nąłem 139468
au 139405
▁gospodarczej 139375
▁por 139333
▁jakąś 139274
▁Bie 139210
▁fi 139152
▁chciała 139133
▁Lecz 139072
żą 139030
rzą 138952
▁prowadzenia 138885
▁krajów 138865
▁y 138858
▁problemu 138854
▁zatrudnienia 138848
▁Bi 138745
▁wydatki 138658
▁głowie 138615
▁tuż 138607
▁Historia 138562
▁zapewne 138535
▁pow 138481
tna 138470
▁rozpatrzenia 138444
kow 138404
czyk 138403
ami 138364
alne 138314
▁okresu 138280
▁szczęście 138228
ger 138192
▁obie 138095
▁39 138074
▁Zjednoczonych 137985
▁pol 137870
▁połowie 137837
▁ostatni 137828
▁kwotę 137743
▁spokojnie 137615
▁odniesieniu 137592
▁idzie 137518
czkę 137487
żu 137459
żone 137437
▁rację 137419
▁Ży 137407
▁pewnego 137352
▁włosy 137336
dia 137260
▁1991 137167
rzenia 137066
czona 137056
▁pojęcia 136984
▁Jo 136942
▁194 136915
giem 136841
▁47 136677
▁ręki 136547
▁jakiegoś 136541
▁własnej 136516
for 136505
▁7. 136499
▁określa 136382
▁grup 136333
▁wprowadzenie 136178
▁oczu 136118
▁przewiduje 136109
▁rozmowy 135941
▁Ge 135937
▁prawdopodobnie 135930
▁list 135898
▁zmianę 135686
AN 135683
dzili 135574
ä 135543
▁Vi 135543
▁Ce 135336
▁1995 135329
▁koło 135266
▁określone 135254
owni 135246
rod 135226
▁obrad 135148
cyjną 135097
kowych 135050
sh 135008
▁procesu 134990
▁czu 134932
▁itd 134919
▁czasów 134850
▁195 134823
par 134749
+ 134587
▁wielką 134530
gę 134489
▁sprawozdania 134408
▁pę 134396
▁termin 134381
▁dyrektor 134335
▁grupa 134277
ram 134192
stwie 134173
▁powinniśmy 134153
ans 134089
cznymi 134088
▁czymś 134084
tycznych 134053
▁sprzedaży 134014
▁ostatnie 133789
▁zdrowotnej 133669
żyła 133637
▁wzrostu 133627
▁podmiotów 133600
tny 133597
▁ne 133571
Bu 133417
▁kur 133395
▁pewnych 133390
▁cy 133389
▁pierwszych 133277
▁niektóre 133275
szej 133238
▁polskim 133234
▁Mor 133206
▁Ad 133121
▁pobliżu 133054
gan 133025
▁Gdzie 132780
tej 132685
▁widok 132656
niła 132542
▁Hu 132540
lni 132516
szego 132516
▁umów 132418
zapytanie 132409
▁stary 132363
▁udziału 132360
▁Wal 132300
▁Adam 132274
▁pozwala 132234
▁196 132213
land 132179
▁zaczyna 132101
▁finansowe 132097
▁Józef 132019
▁Pie 132015
< 131945
ate 131922
▁Niestety 131895
mar 131873
▁197 131853
▁finansowania 131849
ph 131770
wana 131600
anów 131595
▁ś 131561
▁zobaczyć 131520
▁niestety 131485
▁43 131391
▁przyjęcia 131368
▁łatwo 131340
waniu 131259
▁Har 131198
▁choćby 131165
í 131146
▁budżetowej 131114
▁warto 131111
▁syna 131076
▁narodowej 131033
▁określonych 131018
▁posłowie 131007
▁Sprawiedliwości 130997
▁Czas 130976
ple 130867
▁Izby 130866
▁wszelkie 130816
▁Wysoki 130785
▁(2 130726
." 130702
▁wielo 130649
gą 130514
▁źle 130471
nęły 130429
▁zadanie 130398
▁obowiązku 130363
▁stanowią 130272
▁Cy 130266
styczne 130250
▁Polaków 130244
▁chcesz 130132
▁swym 129961
▁ster 129959
▁uwag 129927
▁języka 129863
▁sprawiedliwości 129814
bia 129735
▁miejscowości 129733
lina 129653
▁prezes 129647
▁przyjąć 129573
▁stały 129429
▁1993 129424
▁stopnia 129374
owska 129347
łoby 129336
▁Ż 129198
▁prezydenta 129079
▁dróg 129011
przy 129010
▁występuje 128963
▁piśmie 128961
▁przyjął 128942
▁serce 128927
rzem 128912
▁krajach 128860
▁wkrótce 128810
▁rolnictwa 128772
▁v 128764
▁szeroko 128743
▁Con 128710
▁Tego 128694
anymi 128678
▁LINEAR 128607
▁szereg 128559
kowski 128515
▁przedstawić 128487
▁niezwykle 128472
▁krótko 128439
▁rzeczywistości 128424
▁Świata 128395
▁wz 128298
kowej 128202
▁stoi 128096
▁pre 128021
▁Maria 128018
dzony 127921
▁Europie 127901
▁informację 127901
▁będziesz 127857
SP 127826
▁1992 127771
▁przewodnicząc 127731
▁chwilą 127673
▁80 127626
▁gro 127606
tel 127539
▁Naj 127506
▁Gar 127477
.). 127429
jcie 127415
▁dłoń 127393
▁możesz 127373
▁piersi 127329
35 127255
▁wyraz 127213
tt 127212
tuje 127179
▁Art 127160
szenie 127088
gów 127081
▁st 126990
▁bio 126965
▁Projekt 126801
▁podróż 126737
nica 126703
▁uważa 126693
▁dotąd 126681
▁wyboru 126590
▁Jerzy 126523
▁kadencji 126450
▁zaledwie 126425
▁matki 126396
▁for 126329
zmu 126320
▁UE 126161
bor 126157
▁musiała 126130
▁42 126113
▁Być 126042
lił 126026
▁roli 126015
▁funkcję 126001
▁para 125990
▁Ł 125979
▁książę 125942
▁prawem 125932
id 125875
▁kolejnych 125871
jmy 125848
▁wziął 125809
▁dyskusję 125798
▁zwierząt 125793
▁funkcji 125770
▁wojnie 125764
▁44 125734
▁zdobył 125694
▁Policji 125664
rzał 125609
▁sąd 125601
▁organów 125592
▁światło 125561
▁miłości 125520
▁Pra 125474
bar 125444
▁pło 125399
▁Przepraszam 125397
▁dziedzinie 125306
▁Mistrzostwa 125251
▁uważam 125242
lis 125241
win 125176
▁“ 125031
Ś 125027
▁Dzięki 124934
▁Per 124927
▁uczniów 124909
▁łącznie 124889
▁wartość 124852
95 124791
stycznych 124770
▁światła 124764
▁Gospodarki 124737
▁jakimś 124701
śmy 124627
▁kre 124600
▁Rada 124571
▁sen 124375
▁Uważam 124331
szka 124240
▁klub 124161
▁uśmiechnął 124115
28 124075
▁jakości 124058
▁środka 123962
▁Kor 123883
▁cze 123770
kon 123728
▁be 123726
▁wynagrodzenia 123665
▁małe 123563
75 123491
▁krew 123475
nes 123415
onu 123287
towe 123193
▁droga 123154
szczy 123121
▁sądzę 123100
liście 123064
▁& 122981
▁projektem 122894
śni 122882
▁prosto 122746
▁programów 122659
▁grze 122650
▁świetle 122617
▁czeka 122616
▁poziomu 122605
▁sądu 122603
aki 122581
▁sztuki 122505
ato 122493
▁Kra 122479
▁Właśnie 122457
▁łu 122427
▁dochodów 122370
▁jakoś 122360
pia 122349
nio 122332
-3 122321
▁formy 122294
▁wykonania 122278
nęło 122052
▁jakich 122037
▁mianowicie 122016
▁Mat 122014
▁cele 122003
▁znaczenia 121908
▁drogą 121872
▁Sp 121858
▁uro 121852
▁rzeki 121826
śnie 121799
jąco 121794
▁ilości 121794
▁Th 121784
▁zdanie 121752
▁moc 121732
▁obrony 121703
▁Związku 121702
▁rzucił 121701
▁(1 121697
▁Ben 121658
sp 121630
ers 121593
dzia 121591
▁tobą 121557
▁spotkania 121477
nęli 121433
wając 121299
rał 121198
▁pozwoli 121198
stan 121083
▁staje 121054
ö 120936
▁wrócił 120911
▁wprowadzenia 120906
▁Par 120868
▁8. 120830
▁młodzieży 120806
▁nikogo 120703
▁Klub 120684
br 120661
▁Głos 120659
▁gości 120633
▁Anna 120554
▁cóż 120302
▁listy 120217
▁chcemy 120132
tera 120094
▁pozostałych 120082
▁pierwsza 120081
▁potrafi 120073
▁nauczycieli 120005
▁Rok 119987
▁Sh 119912
▁Pol 119856
▁spotkanie 119842
▁charaktery 119815
▁publicznego 119814
▁Jeden 119754
▁wysoko 119739
▁rodziców 119686
▁wszystkiego 119593
▁budynku 119503
kła 119429
ll 119426
▁anty 119424
▁Że 119410
▁zależy 119406
▁Tymczasem 119348
.), 119216
▁posłowi 119108
▁zakres 119088
▁wręcz 119080
▁XIX 119061
▁zewnątrz 119045
▁druga 119042
▁powyższym 119027
▁przedsiębiorstw 118968
▁Takie 118951
▁sześć 118941
▁Marek 118894
▁trybie 118820
▁iść 118814
▁wyniki 118768
stwem 118694
▁dniem 118569
▁Bra 118544
▁granicy 118516
▁rano 118495
▁chcą 118488
▁Gro 118345
▁rodzin 118338
98 118294
ham 118293
▁pań 118283
▁mę 118250
26 118225
▁Dopiero 118171
▁Senat 118116
wają 118059
▁PKP 118047
▁wsparcia 118028
▁Państwo 118027
▁niewiele 117977
niejszych 117960
▁Q 117914
czni 117860
▁ści 117838
▁nowelizacji 117836
▁szcze 117822
▁sezonie 117808
owców 117722
▁centrum 117704
▁198 117681
▁partii 117653
cyjnie 117650
▁większe 117638
▁zawołał 117634
▁min 117617
▁samą 117617
▁pamięci 117547
▁Nagle 117448
▁późn 117375
▁podniósł 117206
chem 117177
▁wszedł 117149
▁opinię 117075
▁sza 117020
▁doktor 117011
lić 116996
▁pozosta 116964
skiem 116951
▁celów 116941
lej 116917
▁przypadkach 116888
▁szkole 116880
ü 116877
▁mając 116875
▁70 116839
▁Muszę 116765
▁bie 116677
▁przedstawia 116583
▁dłużej 116515
▁Centrum 116435
▁wielkim 116417
▁193 116378
▁Życiorys 116359
▁Kościoła 116236
fo 116214
bra 116197
▁sprawą 116124
▁wiadomości 116090
▁miast 116055
▁obejmuje 116038
▁stra 116014
ciła 116012
▁zwrócił 115990
lia 115956
▁jakiej 115862
▁zmie 115775
▁odezwał 115708
▁istotne 115688
gh 115686
▁składa 115621
▁członkiem 115610
▁wojska 115545
AR 115511
szki 115448
▁ramię 115349
▁Ich 115325
▁Bel 115313
▁Hi 115255
niach 115235
▁Ziemi 115232
▁Ochrony 115218
▁von 115216
▁panem 115175
▁głęboko 114966
wach 114960
hu 114952
▁odpowiedzieć 114919
lona 114881
▁rodzaj 114818
▁widzi 114801
▁pra 114786
▁kwestie 114774
▁strze 114760
▁broń 114753
▁pomóc 114732
ena 114708
wski 114703
▁Cz 114580
▁pom 114555
sti 114536
dar 114441
▁1989 114438
berg 114414
q 114401
qu 114349
▁czuł 114309
-0 114307
czonych 114301
▁ska 114265
czono 114254
▁Każdy 114247
▁wyszedł 114201
▁rozpoczął 114079
▁doszło 114058
▁moment 114034
szenia 113979
ros 113892
▁doskonale 113857
▁mil 113832
▁mm 113676
▁mówimy 113661
▁Niemcy 113659
▁kolejny 113593
▁Rosji 113537
sch 113481
▁zak 113467
cony 113452
▁kościoła 113372
▁gór 113340
85 113300
▁wykonywania 113293
▁Przechodzimy 113233
▁mówiła 113220
▁zawarte 113197
▁zechce 113095
▁Kościół 113068
▁Biura 113028
zja 112832
▁jakaś 112766
▁pragnę 112735
sła 112670
▁język 112670
\' 112606
wanych 112594
tow 112583
▁^ 112573
‚ 112537
▁Kontroli 112527
dne 112457
dzy 112416
▁zło 112410
▁amerykański 112399
anka 112342
▁pły 112333
ot 112317
▁miłość 112296
▁Pat 112280
▁chciałby 112261
▁Polityki 112242
ER 112241
▁dziennego 112223
000 112206
▁potrzeba 112201
▁| 112190
▁By 112106
▁władz 112099
▁reformy 112042
▁spod 112037
▁liście 112016
▁przedstawiciela 111951
▁kraj 111947
▁leży 111914
▁skali 111860
▁środku 111808
33 111804
▁Cóż 111776
▁cm 111773
▁Wobec 111753
kał 111721
atu 111672
▁nadzoru 111666
▁ż 111588
gli 111544
▁byłby 111534
▁Man 111532
tycznej 111498
▁dniach 111434
▁chciałem 111433
▁ak 111424
▁kształt 111372
▁podnieść 111370
pę 111358
▁Krajowej 111232
alny 111218
); 111202
▁tyłu 111167
▁Ministerstwie 111080
aru 111071
▁samych 111029
wego 111014
▁wzdłuż 110866
▁postać 110850
▁człowiekiem 110846
wienie 110844
▁Tom 110837
▁obszar 110796
uk 110696
▁konieczność 110695
▁dziesięć 110624
▁kwota 110623
are 110523
wer 110490
▁nasza 110462
▁żona 110444
▁decyzje 110423
▁pewna 110422
▁kim 110412
▁Dy 110387
▁zabranie 110384
wej 110368
▁dokumentów 110337
pat 110325
▁Sy 110322
▁pięciu 110292
▁wymie 110286
▁Mie 110254
▁10. 110252
▁> 110221
▁Niemiec 110156
▁nową 110119
▁długości 110106
np 110101
▁Urzędu 110095
wych 110080
▁kości 110063
▁drzew 110026
▁trudności 110024
▁przyjęła 110016
▁New 110001
▁mały 109989
▁propozycję 109878
rowa 109848
▁Pierwszy 109822
▁stro 109819
▁analizy 109818
▁wejścia 109804
▁naszą 109751
dzeniem 109748
▁książki 109733
▁wielkości 109720
▁55 109575
▁pracował 109571
▁urzędu 109564
iał 109535
▁budżet 109493
cio 109460
▁powietrze 109456
pl 109453
▁musieli 109445
▁oka 109423
▁Och 109419
▁dodać 109388
▁form 109223
▁powoduje 109178
▁zale 109176
▁etapie 109168
▁dodał 109154
torem 109146
▁wynik 109053
▁liczbę 109047
▁Miejsce 109042
▁kategorii 109017
owskiej 109010
pol 109010
▁Gi 108980
-2 108977
nionych 108947
▁społeczne 108944
▁pla 108901
▁wysokość 108863
▁ostatnim 108853
▁Robert 108846
▁dowo 108788
▁Ła 108749
▁regulacji 108740
tnych 108699
▁politycznych 108697
▁następuje 108654
tyczny 108560
▁wczoraj 108543
OR 108455
▁kro 108418
▁dyrektora 108417
▁przedstawi 108400
▁9. 108377
stka 108373
48 108360
thumb 108316
dom 108312
bę 108279
▁ramionami 108279
▁niebezpie 108245
cenia 108181
▁4, 108181
▁HS 108113
czeniem 108092
zn 108040
▁obecnej 108010
▁zawi 107981
ściami 107969
▁wiedzą 107967
▁pomysł 107945
▁zauważyć 107897
▁druku 107878
▁ds 107874
lami 107857
ściach 107841
▁1945 107841
▁podstawowych 107804
mer 107784
szek 107766
▁Tra 107670
szył 107637
ser 107628
▁miarę 107606
ec 107565
▁zajął 107550
styczny 107512
▁dwadzieścia 107495
▁edukacji 107488
▁punktów 107378
dna 107296
vo 107277
▁Cor 107212
▁di 107157
▁przepisu 107140
▁uśmiech 107114
▁Poprawka 107084
▁wspólnego 107071
▁złotych 107046
▁stwierdzić 107003
ctwo 106973
▁Paweł 106962
▁zła 106914
▁premiera 106882
96 106868
sami 106865
nikiem 106841
▁dawno 106831
▁dzi 106829
▁małych 106804
szony 106798
▁dziewczyna 106793
▁ton 106777
▁1939 106768
knął 106746
▁90 106703
▁wyzna 106687
▁jakiejś 106668
nki 106665
▁tro 106632
▁dostęp 106619
towej 106583
tz 106577
rat 106570
▁Bur 106565
▁dawna 106503
▁oprócz 106488
cone 106429
▁500 106418
▁Agencji 106363
▁wielkiego 106351
▁pora 106302
▁armii 106295
▁Tar 106263
▁Star 106258
▁brzegu 106257
▁− 106241
▁PO 106238
▁odległości 106222
▁sprzeciwu 106215
▁Cze 106206
▁najlepiej 106180
▁przyjęty 106136
▁star 106122
▁dłoni 106110
ącego 106100
▁transportu 106087
27 106035
tacji 106021
pał 105944
▁wal 105876
▁zmienić 105769
▁międzynarod 105720
▁panowie 105720
▁polska 105718
▁pełne 105677
▁czasach 105671
▁podjął 105534
▁Kry 105523
por 105463
▁zdania 105441
▁wspólnie 105440
▁pamiętam 105414
▁roślin 105388
▁szacunku 105388
nd 105387
nięty 105386
bel 105334
▁Warszawy 105320
▁film 105279
skimi 105266
▁milionów 105236
▁Praw 105206
śli 105167
▁państwowych 105101
łami 105100
wić 105040
▁Ona 104965
dzeniu 104924
raz 104887
▁wzrokiem 104878
gro 104749
-18 104748
tyka 104736
▁żyje 104711
22 104688
jak 104640
▁towarów 104636
▁pewną 104628
daw 104478
▁pal 104476
▁zostali 104371
▁spółek 104329
tan 104231
usz 104212
▁koń 104186
wiła 104167
▁dopóki 104154
▁sposobu 104115
▁róż 104052
▁rad 104018
▁zachowania 103961
niał 103956
▁natury 103936
▁jutro 103935
▁los 103919
▁Komisję 103912
▁przestrzeni 103899
▁prowadzić 103873
▁przypomnieć 103840
▁senatora 103823
▁mówią 103813
▁powyżej 103772
▁prywatyzacji 103771
▁potrzebne 103764
pra 103679
tnym 103666
▁własnego 103613
▁Fe 103596
▁Por 103593
gła 103576
waj 103568
?! 103527
aku 103493
nii 103480
chów 103439
а 103418
lizacji 103408
anem 103354
lub 103349
anki 103342
Na 103285
rzony 103142
▁budowę 103078
▁kry 103060
kowego 103035
▁zagranicznych 103021
▁Ach 102991
▁Her 102983
▁Cha 102926
dny 102924
▁senatorów 102886
▁pochodzi 102869
-20 102861
del 102860
▁Cie 102854
▁zmienia 102827
▁kg 102820
pli 102818
▁odwrócił 102641
▁profesor 102526
▁pozostaje 102516
▁ZSRR 102495
Ma 102484
▁mistrzostw 102482
▁czemu 102470
tycznego 102459
▁dosyć 102420
wienia 102415
▁akurat 102398
.. 102374
▁Michał 102255
▁nazwę 102190
▁oba 102128
dow 102099
65 102079
▁Wreszcie 102032
▁Mary 102028
▁ide 101950
▁sensie 101944
und 101896
▁Kultury 101890
lik 101878
ble 101860
▁Biuro 101814
ił 101801
ST 101753
log 101750
▁Oto 101683
▁pojawił 101634
▁zakładów 101629
gło 101602
▁euro 101593
▁pewnej 101578
▁zobaczył 101578
cką 101560
▁miesz 101560
▁odpowiednio 101551
▁wziąć 101501
ńską 101435
▁propozycje 101401
▁ów 101387
ria 101385
▁medal 101380
▁pierwszą 101351
▁powstania 101350
▁okazało 101313
szone 101291
▁przeszedł 101283
▁doświadczenia 101279
▁Ke 101276
▁zakład 101210
▁Sądzę 101202
▁kogo 101150
▁ho 101145
pił 101106
94 101102
sach 101086
▁ostatecznie 101071
cenie 101068
93 101017
dzonych 100897
▁Zawsze 100790
▁Cho 100774
▁działanie 100751
▁Mój 100748
lla 100747
hy 100638
▁źródeł 100628
▁własności 100562
bach 100531
ró 100525
▁samorząd 100513
▁poniżej 100510
76 100499
tory 100499
▁zamierza 100489
▁pokry 100457
▁mąż 100428
▁dodatkowe 100324
ling 100204
▁trwa 100191
kowie 100163
/19 100148
▁przedstawiciel 100147
nięcie 100121
▁położona 100077
zę 100069
tes 100052
▁obowiązków 100035
▁autor 100026
ct 100023
▁« 100023
▁niepo 100018
▁języku 100017
▁świadomość 100013
▁zawodowych 99975
ed 99968
"). 99957
owanymi 99955
▁gło 99953
▁układ 99951
▁stacji 99922
▁cho 99909
rzyć 99813
▁własnym 99760
▁umie 99735
▁przygotowania 99732
▁stu 99726
▁siedział 99629
▁zdaje 99618
szę 99576
▁podobne 99552
▁zawie 99550
▁Trybunału 99546
tał 99480
▁ruszył 99479
iej 99478
ret 99466
▁tem 99427
czonego 99375
kim 99364
▁wersji 99363
▁Rolnictwa 99359
cen 99349
▁zwie 99343
▁Kodeksu 99299
▁numer 99255
szcze 99250
▁per 99225
▁podjąć 99222
▁rolników 99180
"), 99154
tur 99139
46 99110
rzyła 99051
▁statku 98991
▁stosowania 98933
▁głośno 98929
▁ściany 98842
yt 98800
▁niewy 98742
szem 98672
▁prof 98671
▁stóp 98616
▁obecności 98609
▁prawne 98535
▁wielkich 98508
-1 98489
▁studia 98417
▁Większość 98405
97 98364
▁Mon 98355
78 98316
▁skutek 98302
ium 98301
▁tygodni 98259
▁war 98257
▁nowym 98232
stw 98220
kt 98204
▁krok 98112
:5 98103
nikami 98087
▁interpelację 98084
ft 98081
▁godz 98078
IE 98046
żeniem 98040
niejszy 98005
▁współ 97976
▁wielkiej 97955
▁infrastruktury 97844
▁SPS 97812
▁społecznego 97801
▁Anglii 97773
▁2019 97753
▁pojawia 97715
▁ło 97698
▁stanął 97690
▁najczęściej 97686
▁Wielkiej 97547
logii 97544
▁projekty 97538
▁wiedziała 97497
▁patrząc 97472
▁zabi 97435
▁powiatu 97430
▁Panowie 97427
▁tle 97367
▁zostaje 97354
wiał 97301
▁ażeby 97274
▁mogłem 97240
▁brat 97209
▁likwidacji 97127
▁procent 97074
tak 97067
▁mówiłem 97019
fer 96992
stym 96972
и 96968
▁jasno 96907
▁Gre 96899
▁5, 96879
▁zach 96878
▁okoliczności 96874
▁NU 96847
▁ciężko 96785
▁ceny 96780
▁wskazuje 96760
▁praca 96745
▁siedem 96738
▁NIK 96721
▁VI 96695
▁władze 96662
▁własną 96658
▁uczy 96624
▁Nor 96598
▁wyro 96577
▁Bor 96519
▁zrozumieć 96489
▁koszt 96400
▁bliżej 96360
▁świe 96333
▁192 96327
nemu 96288
czem 96278
▁rzu 96273
que 96254
dziły 96246
▁drzewa 96178
zd 96174
38 96162
▁pochodzenia 96092
wskiego 96065
▁dużej 96042
▁skutki 95938
▁Mal 95866
▁Coś 95863
▁(198 95859
mina 95837
tury 95827
źni 95821
▁dotacji 95797
▁Jesteś 95788
▁Sza 95762
▁Zresztą 95751
▁choroby 95733
▁pozna 95718
▁związek 95708
▁Ludzie 95672
▁zrobi 95663
szał 95649
▁Jednakże 95537
czeniu 95519
▁rąk 95505
asa 95487
▁propozycja 95467
▁75 95459
▁przepisami 95431
tował 95355
▁rodzinie 95310
▁wewnątrz 95300
▁kontekście 95297
dzać 95296
▁liczne 95271
ctwa 95262
▁stole 95233
▁(200 95212
▁terytorium 95174
▁materiałów 95138
▁niebo 95111
cząc 95101
dziło 95096
▁cza 95096
▁Tur 95060
ene 95048
czonym 95038
▁Kariera 95033
▁nazwa 95004
▁sygn 94894
▁osob 94892
▁ks 94853
▁dużą 94841
▁przedstawiciele 94827
▁element 94826
▁młody 94817
▁Ti 94803
dnia 94783
sł 94783
tion 94782
▁prowadzonych 94777
owca 94752
wią 94749
21 94730
rzone 94704
▁nazwisko 94700
▁szko 94649
▁biegu 94626
żę 94582
wicz 94575
Le 94556
73 94554
kuje 94552
▁ochronie 94549
rie 94535
dzona 94523
▁uzyskania 94476
▁uprawnień 94473
dać 94465
szyć 94446
pis 94443
▁stara 94377
▁wyrzu 94374
▁1: 94342
▁byłaby 94283
▁bieg 94281
szona 94219
▁przemysłu 94205
▁konieczne 94202
▁ograniczenia 94193
▁skarbu 94187
36 94173
▁Były 94149
▁długi 94138
bli 94111
▁patrzył 94103
▁fa 94101
▁jasne 94012
rad 93997
▁okna 93987
▁poczuł 93961
▁polityk 93960
▁twój 93960
89 93957
ąca 93906
op 93901
arów 93896
kała 93881
▁zde 93852
lonych 93845
▁For 93844
▁itp 93795
▁większą 93789
lii 93731
rak 93724
▁spojrzenie 93724
▁słu 93720
▁at 93712
gami 93669
Za 93648
towa 93645
▁bru 93579
▁punkty 93564
▁stanowisku 93533
▁ucie 93525
▁Stąd 93476
▁księcia 93456
▁restruktury 93423
▁umysł 93423
▁konia 93406
▁łą 93394
▁spokój 93388
▁wrócić 93347
▁usługi 93343
▁czasami 93342
czyły 93320
▁Będzie 93318
▁Prawa 93312
▁Musimy 93290
:3 93245
leg 93233
▁bok 93200
▁młodych 93138
tała 93101
▁Gór 93101
▁Bogu 93037
▁decyzja 93037
▁uzyskać 93018
▁oczami 93010
▁spi 93001
-200 92948
▁wyjaśnić 92927
▁firm 92925
owość 92900
▁Gru 92899
▁długie 92899
▁stali 92891
dal 92864
▁uzna 92844
-5 92830
▁spa 92830
ństwo 92735
▁duży 92730
▁Pre 92666
▁męża 92591
▁Krzysztof 92531
▁służb 92531
▁przyczyn 92461
▁organ 92427
mem 92387
▁kom 92372
▁mieliśmy 92343
▁podziału 92301
ps 92293
▁zasadach 92280
nen 92268
▁wydał 92190
▁któremu 92180
czeni 92130
▁Tadeusz 92076
byś 92075
▁poru 92058
kiewicz 92050
▁nazwy 92019
▁uży 92006
czką 91965
żonych 91956
▁przeprowa 91936
▁organy 91868
tnego 91797
wiać 91788
▁wyjaśnienia 91778
▁zarazem 91679
▁procedury 91665
▁Tomasz 91637
▁zainteres 91629
68 91621
▁przodu 91608
▁spytała 91586
▁powstał 91576
▁ilość 91573
dali 91558
▁konieczności 91551
▁oparciu 91512
▁mieszka 91488
▁lekarza 91447
▁zwiększenie 91434
▁polu 91421
▁funduszu 91419
liz 91414
▁inicjatywy 91411
▁twoje 91390
towy 91379
▁odpowiednie 91344
cili 91249
34 91233
92 91224
▁ludźmi 91183
▁regionie 91126
▁ostatniej 91116
▁Ol 91092
▁próbował 91046
gna 91020
▁Mil 90979
▁65 90952
AT 90918
▁rynek 90873
▁pokój 90857
▁metody 90831
▁przedsiębiorców 90785
▁wyd 90775
▁podstawy 90768
▁udziałem 90709
▁handlu 90706
▁sądów 90673
tną 90640
▁Pierwsze 90621
era 90610
▁terminie 90582
Ch 90566
▁osiem 90533
czeń 90483
▁poch 90480
▁400 90476
▁kościół 90470
▁należałoby 90454
▁300 90438
▁os 90430
▁wyda 90373
▁rozwi 90369
▁podróży 90363
▁prezydent 90339
nka 90323
▁zapewnić 90273
▁oko 90204
▁loka 90183
▁au 90172
▁mieszkania 90129
▁Komitetu 90114
▁zagrożenia 90113
▁Klubu 90108
▁przedstawienie 90064
▁Uniwersytetu 90052
now 89991
▁uśmiechem 89974
▁Ustawa 89929
▁obsługi 89846
▁reprezentacji 89845
▁Mer 89825
▁telewizji 89816
▁powodów 89799
▁wodę 89798
▁ból 89779
czyłem 89774
▁zgody 89716
▁akt 89701
▁kieszeni 89694
cj 89671
74 89647
▁równo 89630
▁znalazła 89614
▁Fo 89612
▁Dar 89607
żona 89593
▁chło 89591
▁żyć 89577
▁dotyczą 89495
▁wydawało 89444
▁każda 89433
▁widziałem 89371
▁dia 89366
dziłem 89314
▁Tutaj 89314
▁Ste 89291
▁domów 89207
▁odda 89187
nic 89142
▁stylu 89133
▁or 89116
▁przyjęta 89084
▁zapytała 89075
▁gar 89072
:2 89044
▁wprowadza 89040
▁Podobnie 89018
dzał 88979
▁wielokrotnie 88951
▁wiatr 88936
▁rozbi 88911
nięcia 88852
Ż 88850
▁odwie 88802
▁teren 88764
▁chcieli 88755
ator 88719
▁kary 88698
▁głosowanie 88662
▁szansę 88659
▁gen 88651
▁poszedł 88640
▁opłat 88638
▁słońca 88558
▁Później 88557
dzono 88548
▁sprawozdanie 88537
▁wyciąg 88537
▁wyjątkiem 88522
▁obiektów 88516
▁ministerstwo 88507
wem 88491
Ą 88482
▁sku 88476
▁zajmuje 88442
▁sprzeciw 88441
▁prawdę 88439
▁zależności 88429
ven 88414
▁duszy 88402
▁odparła 88397
▁produktów 88355
stki 88342
99 88326
▁ramiona 88290
lec 88271
▁myśleć 88242
czonej 88220
▁zosta 88211
▁uczelni 88209
kich 88201
64 88095
▁Akademii 87995
tyk 87986
▁aktor 87984
łę 87972
▁znam 87957
▁zakończeniu 87948
spo 87916
▁niby 87864
▁przyjaciół 87855
lała 87835
▁krę 87814
▁Niemczech 87767
▁członkowie 87756
ącym 87755
!... 87709
onów 87700
str 87692
▁Dzisiaj 87687
dam 87676
stego 87671
▁konstytucji 87657
▁majątku 87622
▁ar 87612
▁boku 87607
▁poważnie 87541
▁Ani 87498
owskim 87479
▁Albo 87459
▁powietrza 87450
▁biskup 87397
kać 87393
▁wewnętrznych 87392
wię 87377
tować 87346
▁wszelkich 87339
▁Społecznej 87334
▁kształcenia 87324
▁dolarów 87299
▁wchodzi 87297
▁szef 87261
dli 87241
▁południe 87231
▁prawnej 87223
▁Stanisława 87202
▁(15 87193
▁mat 87180
nij 87164
▁Poli 87118
▁piłkarz 87117
▁kwestię 87095
▁otworzył 87091
▁lekarz 87081
wiony 87061
▁tru 87061
▁wnosi 87042
torów 86999
got 86987
▁premier 86929
▁biorąc 86877
▁wnioskiem 86862
ON 86826
▁ataku 86802
▁pracować 86774
dro 86737
dała 86728
leni 86725
▁opis 86720
44 86671
▁Trudno 86653
ris 86643
▁następujących 86639
▁pot 86639
dnych 86632
▁wojsk 86612
▁sens 86569
▁rolnych 86549
cał 86536
To 86509
▁należała 86509
▁Bro 86469
▁og 86469
▁kompetencji 86467
ścia 86416
-4 86406
▁ofiar 86388
▁150 86368
In 86361
▁przedtem 86357
▁ludziom 86311
czno 86301
▁uzyskał 86296
▁Ros 86254
tal 86250
▁wywo 86238
▁inną 86218
▁Masz 86183
▁tobie 86138
▁częścią 86128
▁poprze 86121
▁dużym 86120
▁rzadko 86086
▁dokument 86084
▁he 86068
ura 86046
▁Jack 86034
▁Am 86026
!" 86023
▁zdecydowanie 86012
▁atak 85983
▁oświaty 85977
RA 85962
dną 85939
oru 85888
▁śmie 85849
▁powietrzu 85838
▁dłonie 85826
▁przyzna 85756
▁odkry 85686
▁trzeci 85683
▁nowa 85662
▁Ser 85653
row 85635
▁rodzi 85627
▁udzielenie 85600
▁Skoro 85590
▁Kur 85555
▁Dzie 85549
łach 85539
▁domy 85522
czność 85489
▁Sko 85456
▁wyników 85425
▁treść 85424
▁dostar 85351
▁znany 85301
▁zapisu 85282
▁struktury 85263
▁elementy 85238
▁mruknął 85230
▁dowiedzieć 85169
▁żony 85128
▁wystarczy 85098
▁wynosiła 85003
tyczna 84978
▁wieczorem 84971
▁uprawnienia 84946
żeniu 84930
▁praktycznie 84898
▁żebyśmy 84897
▁Stra 84889
roz 84873
▁odbywa 84846
▁inna 84818
▁elementów 84779
▁kuchni 84743
▁wszędzie 84740
▁Ile 84725
▁brzmieniu 84722
▁George 84711
lał 84690
▁180 84647
▁Został 84640
» 84569
▁brata 84472
▁Im 84470
▁Środowiska 84433
▁dotyczącej 84396
▁skutków 84350
ciel 84306
 84295
▁tor 84291
gł 84279
▁dział 84276
▁usłyszał 84275
szcza 84237
▁przejść 84165
▁wina 84149
▁mas 84117
kli 84113
▁6, 84081
° 84078
tyw 84073
:4 84057
tnej 84054
rać 84013
▁11. 83840
▁krzyknął 83797
72 83778
duje 83767
szymi 83739
▁pola 83667
▁niezależnie 83605
cko 83589
▁ostro 83569
dr 83568
▁gwałtownie 83541
37 83517
▁przeży 83485
Ko 83453
▁Edukacji 83397
▁podlega 83391
▁1980 83382
wan 83379
▁Ver 83353
▁podmioty 83348
▁podszedł 83333
▁zaczęły 83315
▁En 83278
▁wydania 83278
▁ponadto 83272
▁Au 83268
▁statek 83265
▁interes 83259
▁praktyce 83251
▁wyłą 83244
ąd 83234
▁węgla 83207
▁dwoma 83182
▁nu 83181
▁Proponuję 83167
▁pamiętać 83150
kiej 83128
▁gu 83117
▁Chi 83113
nice 83108
▁powo 83069
▁185 83043
nięte 83042
orów 83033
▁łóżka 83012
о 82977
▁wprowadzić 82974
29 82861
▁spośród 82783
▁głębi 82775
▁Sze 82737
▁Straży 82734
▁wych 82725
▁Szanowni 82706
▁marszałek 82697
▁Zatem 82695
kiego 82687
▁konsekwencji 82649
▁nauczyciel 82624
▁Spo 82618
▁Zaraz 82614
▁skrzy 82581
fy 82537
▁ocenie 82494
▁znane 82493
▁przypomina 82386
OW 82363
czyn 82319
▁osobiście 82292
▁występują 82285
▁późno 82257
ścić 82240
ama 82232
tać 82169
▁jedynym 82165
gał 82155
czności 82130
▁głównego 82116
▁VAT 82101
ują 82077
▁zatrzymał 82074
▁Państwowej 82054
▁szkołach 82046
alnych 82037
▁odnosi 82023
▁1988 81977
▁Skąd 81939
▁dużych 81930
▁źródła 81926
39 81923
waniem 81911
▁zagospodar 81870
▁budżecie 81847
się 81845
logia 81807
▁powstała 81796
▁głosy 81791
rzała 81775
cać 81757
chał 81757
czoną 81745
86 81741
▁przycisk 81720
▁częściowo 81704
▁Kom 81682
66 81675
pod 81672
▁Taka 81656
▁Wysokiej 81640
łości 81607
wki 81605
▁wło 81600
▁gene 81596
▁błąd 81550
kowym 81541
▁sektora 81517
▁inwestycje 81488
▁Zam 81462
▁roboty 81460
▁nazywa 81451
▁samochód 81437
▁Nowy 81397
▁dalszych 81387
IA 81381
▁49 81360
▁miejscach 81355
▁toku 81353
▁pomimo 81339
▁szukać 81335
▁tworzenia 81312
▁każde 81302
▁samochodu 81297
zacja 81295
▁komisja 81271
bił 81225
wne 81174
▁Puchar 81167
▁Armii 81135
▁meczu 81134
▁nasi 81092
▁prawnego 81047
liwy 81044
▁dostępu 81021
▁narodu 80945
▁należało 80937
AL 80910
▁gru 80851
▁dokonać 80787
▁właściwego 80773
▁danej 80758
▁stosunków 80713
▁istnieją 80705
stro 80695
▁oce 80695
▁porównaniu 80686
▁władzę 80647
▁tar 80634
▁nara 80591
fie 80584
▁Data 80569
▁obowiązki 80565
▁liczyć 80561
▁realizowane 80554
▁Krzyż 80477
▁Qu 80443
\ 80439
dał 80392
▁Józefa 80391
▁Aby 80376
cin 80375
cal 80353
▁gospodarczych 80327
▁Muzeum 80307
▁mal 80285
mach 80281
zji 80264
bin 80239
▁ukry 80214
▁wsparcie 80144
▁procesie 80142
▁prowadził 80130
▁wro 80130
▁głównym 80127
des 80121
uro 80088
▁duch 80071
fu 80040
▁polsko 80017
▁Ban 80012
▁Również 79988
▁żebym 79957
▁przyszłość 79949
pan 79925
ią 79901
tyczną 79896
żyli 79894
▁1944 79870
CH 79864
stę 79864
▁ge 79859
▁Sąd 79853
▁żadne 79851
▁lewej 79830
rt 79814
▁stos 79804
▁postępowań 79793
▁ministerstwa 79751
▁rządowej 79747
▁ca 79722
▁osobom 79688
▁opłaty 79677
▁godzinę 79671
mis 79662
▁nieu 79603
▁54 79600
▁wiek 79556
▁Gor 79546
▁um 79521
▁myślał 79507
taj 79491
▁sporzą 79475
▁Tro 79473
▁12. 79466
▁przeznaczone 79466
▁py 79457
▁Han 79454
▁publiczne 79453
▁siłą 79431
32 79429
88 79415
▁finansowej 79408
▁Chociaż 79375
▁poprawce 79370
▁dokumenty 79369
▁uznać 79353
▁rękach 79348
▁(199 79312
▁Jesteśmy 79285
▁wpływu 79271
ako 79266
towego 79258
▁Obrony 79203
▁Stanów 79186
▁świadomości 79184
▁wystąpił 79166
▁zarządu 79117
▁kot 79106
▁grupie 79103
▁odczu 79078
▁poczucie 79064
▁zapa 79060
▁bud 79057
▁nauk 79044
▁Ab 79039
wka 79034
▁funduszy 79020
▁informacja 79009
▁zapewnienia 79008
▁członek 78999
▁dra 78997
nku 78977
czać 78960
▁56 78956
las 78953
ic 78947
▁europejskich 78946
▁chorych 78942
▁rezerwy 78933
bić 78886
▁auto 78885
▁wystąpienia 78831
dat 78788
▁Naprawdę 78786
▁czar 78786
▁zdolności 78764
▁oddech 78736
▁niewątpliwie 78734
mio 78715
▁mego 78714
▁równocześnie 78703
cer 78696
▁ogromne 78683
▁wysokie 78654
▁wschód 78633
▁podstaw 78616
▁pisma 78615
kle 78579
sis 78572
▁trudem 78566
bur 78541
raj 78536
▁słońce 78512
▁Peter 78502
tali 78501
praw 78494
▁zęby 78470
kową 78452
▁ur 78425
▁oddziały 78422
▁zachód 78415
▁jakiego 78386
▁wyjścia 78354
▁właściwy 78347
jach 78342
▁niezbędne 78320
▁zwierzę 78305
▁terminu 78304
▁Wśród 78301
▁nieba 78211
▁ad 78193
tus 78160
▁dobrym 78148
▁pełną 78105
▁wodą 78090
▁morza 78060
▁krzy 78054
Li 78047
lacji 78041
▁zazwyczaj 78021
▁brzmi 78019
ist 77986
sił 77978
dor 77953
▁Paul 77912
▁wynagrodzeń 77895
▁Związek 77885
▁wyższe 77879
▁przepraszam 77867
▁pozycję 77841
▁Zanim 77839
▁połowy 77819
▁próby 77812
▁Słu 77809
▁dodatkowych 77807
▁spę 77793
▁obrotu 77788
# 77718
▁prawdy 77715
poli 77700
ance 77678
▁uj 77674
▁pracuje 77659
▁radio 77626
lam 77615
▁przyszło 77606
▁Dzień 77605
▁okno 77595
▁FC 77583
ącą 77536
▁momentu 77523
▁ograni 77508
wiają 77463
▁sprowa 77426
▁zamiesz 77424
▁mistrz 77404
▁konie 77387
▁odrzucenie 77383
skach 77357
▁szkolenia 77346
▁chodziło 77342
▁Michael 77328
mę 77325
▁roze 77293
▁Os 77288
▁lubi 77281
▁dźwięk 77267
dra 77253
▁Kazimierz 77251
▁policji 77248
▁rozmów 77247
owników 77227
owia 77212
79 77195
gnie 77189
▁der 77171
▁interesów 77169
nar 77160
▁forma 77138
▁zapisy 77104
▁rozporządzenie 77103
▁wę 77102
▁41 77094
▁wypła 77039
▁kapitan 77030
Wy 77001
▁dochody 76994
▁politycznej 76987
▁Hol 76971
▁straty 76961
▁ręku 76939
▁samorządów 76934
wami 76892
▁znajdzie 76881
▁Kat 76873
▁związków 76871
▁problemem 76867
▁opła 76866
Ä 76864
▁starego 76853
tycznym 76849
▁pat 76830
▁czele 76822
▁należą 76803
stej 76794
ls 76780
е 76776
towi 76738
▁ministrowi 76713
stych 76683
▁dru 76672
▁Stu 76666
owcy 76664
▁płyn 76639
czyło 76623
▁określenia 76616
▁pocho 76593
▁Rad 76577
▁ręka 76575
▁zapewnia 76553
▁określenie 76543
▁niemiecki 76517
▁Tor 76494
▁operacji 76487
▁snu 76487
▁Wiesz 76479
dnej 76469
▁hu 76462
stycznej 76453
84 76429
▁osobę 76420
nis 76412
▁zamku 76382
▁Henryk 76347
▁smu 76300
dząc 76280
▁zd 76249
▁stale 76225
▁obni 76206
cona 76198
▁układu 76184
liwe 76175
▁pis 76134
▁pismo 76122
▁utrzymania 76121
▁kiedykolwiek 76113
niejsza 76108
▁Pragnę 76106
nuje 76104
▁prawej 76093
▁zwi 76089
▁niemożliwe 76086
▁zachowanie 76080
▁istocie 76068
▁spojrzała 76053
mann 76052
anta 76043
▁danego 76009
▁Wkrótce 76003
▁polityczne 75999
▁Najpierw 75996
▁Czyli 75988
kowo 75952
▁stopień 75939
▁Sądu 75915
kowskiego 75896
▁północ 75889
▁85 75866
cono 75859
77 75849
▁przyszedł 75817
▁rodzina 75814
▁dalsze 75782
▁bólu 75780
towany 75773
ić 75756
▁prowadzenie 75753
▁wykorzystania 75718
ownik 75715
Co 75713
▁dalszym 75701
▁Ktoś 75694
▁doprowadzić 75674
▁zwo 75661
lus 75650
▁resortu 75649
?" 75637
▁wprawdzie 75621
▁mierze 75603
▁wyrazami 75598
Re 75588
lać 75573
mier 75572
szt 75557
▁lekarzy 75520
▁ogólnej 75478
▁faktu 75457
gn 75446
▁(17 75441
tacja 75440
▁czytania 75424
▁zaczęli 75422
stem 75399
▁tele 75363
▁miesiące 75360
č 75341
▁upraw 75279
▁wiąże 75276
▁Europejskiego 75260
▁cyt 75230
▁mogłaby 75229
▁model 75208
▁rozsze 75204
dła 75182
▁pełnym 75156
▁Druga 75154
ell 75139
▁Mogę 75130
▁1985 75128
ill 75127
▁Izba 75127
▁dowódca 75103
▁poko 75096
▁tymczasem 75084
▁zato 75048
▁Ham 75029
▁Pierwsza 75026
▁zobowiązań 75010
▁1981 75001
liła 74992
▁wiadomość 74969
▁kolejności 74965
▁klasyfikacji 74944
▁pary 74928
▁potrafił 74924
kan 74888
lono 74873
łaś 74863
▁Hal 74838
91 74824
▁karnego 74821
▁wypadek 74806
▁sensu 74769
▁widzieć 74717
▁tekst 74707
▁tonem 74700
▁Pow 74688
▁świ 74671
▁istnienia 74670
▁wła 74663
dnego 74653
31 74642
▁weszła 74623
▁Król 74611
tymi 74605
dnym 74588
bro 74527
▁zająć 74520
enia 74507
▁chcąc 74486
▁rozpozna 74460
▁oficer 74421
▁posłu 74417
▁Karol 74395
▁zgodę 74373
▁trzecie 74368
▁marszałka 74355
▁jednakże 74344
▁poinformować 74341
stycznego 74339
alnie 74308
▁ostatnio 74298
▁tłum 74284
nięta 74280
▁Izbie 74278
leniu 74226
▁Dzi 74210
▁ogień 74182
▁wielka 74171
▁generał 74150
▁7, 74148
▁uznał 74100
▁absolutnie 74094
▁bazy 74083
▁obja 74078
atów 74065
dzimy 74052
▁śpie 73999
aków 73990
conych 73986
▁następnego 73976
cią 73968
łaby 73960
▁1987 73950
▁każdą 73941
▁materiał 73906
▁czyn 73898
czeństwo 73868
▁ostrożnie 73842
▁Brytanii 73823
ńca 73803
▁łóżku 73785
▁żywności 73780
▁Taki 73755
owań 73753
▁2) 73747
▁Program 73747
owałam 73714
anin 73697
▁mała 73695
▁urządzenia 73664
▁odpowiednich 73658
ód 73655
▁relacji 73647
▁poważne 73643
▁wym 73607
▁budynków 73600
▁Ram 73586
▁odrzu 73548
cię 73523
rej 73506
▁urządzeń 73496
▁1982 73487
▁Wiele 73473
▁państwowej 73465
▁Win 73453
▁ściśle 73444
▁listę 73442
kra 73429
): 73412
▁plany 73396
▁materiału 73372
▁zgo 73359
han 73357
▁Fran 73345
▁Trzy 73321
▁mistrzostwach 73314
kro 73310
▁założenia 73310
▁rozkaz 73296
ld 73285
rg 73267
▁północy 73256
nał 73252
▁służyć 73228
▁budżetowych 73220
lot 73218
rali 73215
▁paru 73189
▁stołu 73186
▁52 73167
▁masy 73165
▁przepisach 73163
▁media 73149
▁David 73148
▁palce 73146
▁wyciągnął 73131
▁poszczególne 73046
▁czekał 73044
rząd 73037
▁Administracji 73030
▁gotów 73022
▁doktora 72980
▁Publicznych 72979
pre 72955
▁trudne 72943
Q 72942
▁siedzibą 72936
▁Val 72935
ścił 72933
▁wyborach 72913
▁Ojciec 72906
▁odnieść 72878
▁pacjentów 72868
▁uwadze 72854
▁zadać 72842
▁lud 72825
szyła 72808
▁Fundusz 72802
▁bry 72791
▁większej 72790
▁uczucia 72766
▁kredytów 72744
▁Choć 72743
▁nos 72737
zer 72720
tona 72685
▁1986 72684
▁Dwa 72684
▁dobro 72646
wiała 72642
lli 72615
▁programy 72612
▁gruncie 72609
iar 72597
▁dobrą 72592
▁umożliwia 72564
▁związany 72559
▁znajdował 72516
▁wyp 72481
▁dziewczyny 72451
▁dobrego 72430
▁czekać 72408
▁Rob 72394
▁Tre 72389
▁dzieła 72386
niono 72383
▁prośbą 72353
tura 72331
▁wyglądał 72331
pię 72312
▁leczenia 72312
200 72292
lie 72274
▁przyznać 72273
▁organizacyjne 72269
▁ły 72266
czący 72248
87 72245
anow 72243
▁konkuren 72226
szko 72222
niec 72221
83 72200
▁opowiada 72188
her 72161
▁Bob 72158
▁poło 72138
▁zwięk 72117
▁obecnych 72105
▁spełnia 72096
▁Bru 72090
▁Sk 72060
▁Ed 72055
▁poznać 72050
▁znał 72045
rego 72041
lew 72031
▁biura 72022
ącej 72018
pem 72014
dzki 72008
▁dotk 71996
▁ubezpieczenia 71991
szczenia 71953
▁Bal 71947
kin 71919
lacja 71904
▁up 71879
▁złe 71871
▁porządek 71860
niona 71855
▁dole 71839
▁przedstawił 71835
▁określić 71807
▁-- 71800
▁wskazać 71797
▁zarządzania 71794
gon 71771
ō 71768
▁1984 71760
▁1) 71746
ville 71739
▁obli 71700
▁ple 71664
▁Polskich 71661
▁ducha 71594
▁wyjść 71594
styczna 71581
47 71578
▁odcinku 71573
▁przerwał 71573
▁ostrze 71566
▁nag 71565
▁Łu 71550
▁kan 71545
▁pozostałe 71540
▁wykonanie 71528
▁budzi 71525
▁chętnie 71502
▁Ds 71429
ranie 71420
▁wejść 71372
▁zrozumiał 71372
▁czoło 71365
▁fil 71353
▁trzymał 71347
▁utrzymanie 71327
▁Miała 71323
▁Ur 71288
▁pocz 71287
▁tłu 71285
▁porozumienia 71271
▁powinni 71264
▁osiągnięcia 71237
czce 71231
▁Wewnętrznych 71221
71 71219
▁kla 71204
gach 71195
ion 71177
▁zap 71163
▁czyni 71154
niku 71152
▁zaprze 71138
dział 71132
Pa 71109
▁Polskę 71062
▁kor 71055
▁tryb 71050
▁kazał 71043
82 71014
▁rzeczą 70998
▁tworzy 70977
▁ZUS 70970
▁podjęcia 70968
▁drzwiach 70965
sław 70930
–20 70895
▁Dziś 70883
▁bra 70878
pad 70869
▁sur 70868
67 70866
▁grupę 70863
▁niekiedy 70857
▁cenę 70847
▁duża 70846
▁powyższe 70827
▁bierze 70812
▁czarne 70811
▁nieprawidł 70792
▁Pewnie 70787
czak 70781
▁Chciałem 70741
roni 70738
▁adres 70738
▁chłop 70729
mana 70723
▁obozu 70720
▁przewo 70708
▁sprawdzić 70702
▁sir 70691
▁woda 70649
▁wyszła 70644
▁Rozdział 70616
ces 70549
▁Zespół 70542
▁naro 70537
▁gospodarczego 70533
▁skarb 70507
▁zwracam 70505
▁korzyści 70499
▁13. 70473
▁wiary 70452
▁Instytutu 70445
▁własny 70445
net 70405
▁zakończona 70385
▁pt 70379
▁walce 70374
rum 70370
▁instytucje 70366
▁mające 70365
▁przemysł 70364
▁gospodarstw 70362
▁orze 70350
▁powieści 70337
▁Tru 70288
▁poświę 70279
nowa 70272
▁wysta 70256
▁sub 70252
niejszym 70248
▁tysiące 70241
▁przyj 70237
▁zabezpieczenia 70233
▁właściciel 70225
▁zako 70209
iego 70198
▁studiów 70179
▁Szanowna 70177
▁rzekła 70155
▁postanowił 70148
nionego 70136
▁tamtej 70133
▁żadnym 70130
▁faktycznie 70121
▁funkcje 70114
liwie 70109
▁Ger 70106
▁umiejętności 70086
▁musisz 70085
▁punkcie 70054
▁wpływem 70050
▁Lista 70042
ela 70013
▁zmieni 69981
▁Chciałabym 69979
Ro 69971
▁dziwne 69970
▁zad 69960
▁ban 69955
▁pyta 69949
▁ser 69943
szczenie 69932
▁udzie 69916
▁zadaniem 69912
▁pojazdów 69904
dzają 69901
▁fe 69883
rych 69868
▁Pawła 69865
▁turnieju 69818
red 69795
▁ilu 69774
▁zwiększenia 69764
43 69752
▁przestępstwa 69749
▁Senatorze 69732
▁nacisnąć 69713
▁Jaki 69701
▁Przypominam 69697
▁rozmawiać 69690
▁interpelacji 69651
▁śle 69643
▁wojna 69641
Mi 69616
▁jakichś 69572
▁Mc 69566
▁żar 69535
EN 69532
ału 69513
69 69501
▁brzmienie 69479
odc 69454
knęła 69411
▁1920 69362
▁komi 69362
OS 69355
▁Richard 69341
▁ląd 69325
▁VII 69316
▁ostatniego 69316
▁naprzód 69304
▁Pytanie 69286
ńczy 69266
▁Aleksander 69249
▁kilometrów 69219
▁zali 69188
▁psycho 69187
▁Polskie 69162
▁Stan 69157
▁poży 69151
▁Piotra 69148
zach 69137
mon 69129
▁granicą 69117
▁ryb 69117
▁widząc 69117
▁zmienił 69112
▁Rzeczywiście 69097
▁Podsekretarz 69085
▁okolicy 69052
▁Eu 69016
▁dostać 69012
ord 69009
wen 68999
▁Nauk 68993
▁Grupa 68959
▁zobowiązania 68937
▁Nazwa 68927
wiając 68918
▁osobą 68908
▁ciemności 68890
▁potwier 68884
▁naukowych 68878
▁zaku 68878
▁Mas 68875
▁utworów 68875
▁podstawowe 68868
▁wstał 68866
▁chociażby 68863
wska 68856
▁pociąg 68850
▁uważnie 68848
▁Pozycja 68804
▁53 68798
▁początek 68773
▁dysku 68751
▁Kas 68740
▁narodowych 68736
pach 68718
▁działo 68713
▁pokład 68710
gla 68709
▁ujaw 68699
onych 68681
▁Andrzeja 68673
▁starych 68665
ont 68662
▁strachu 68654
muje 68650
▁działać 68646
▁nazwiska 68645
zuje 68627
eli 68605
▁ciąg 68605
pt 68595
pić 68585
▁trzyma 68551
▁prowincji 68548
▁świet 68508
▁przyjdzie 68487
▁album 68477
asi 68443
▁obszarów 68429
49 68410
ując 68382
▁1983 68370
▁Zie 68352
▁polityka 68345
▁Martin 68296
▁zamiar 68279
▁Paryżu 68271
–200 68268
nin 68261
▁spokoju 68261
▁resort 68255
▁zaba 68253
ład 68248
▁Nowym 68221
▁gruntów 68212
▁wojskowych 68210
▁stosuje 68203
rab 68125
▁serdecznie 68123
▁zazna 68102
▁Sezon 68087
▁staro 68085
▁zw 68083
▁Bieg 68079
▁historia 68073
▁ognia 68073
▁krajowych 68065
▁organizacje 68053
▁miesiąc 68014
▁zakon 68014
▁urząd 68001
▁kole 67997
NA 67989
▁Władysław 67972
▁zmniej 67972
▁znaczeniu 67966
ning 67961
▁Wojciech 67948
▁Kim 67924
pla 67919
▁powszechnie 67911
-10 67909
▁bezpieczeństwo 67904
▁wieczór 67888
▁ulega 67877
▁średniej 67872
śnia 67870
▁telefon 67859
▁przerwy 67855
▁różni 67850
▁120 67848
▁dar 67838
▁prawny 67816
▁sześciu 67804
▁kroków 67798
▁kol 67793
▁szefa 67790
▁XVIII 67764
burg 67758
osa 67745
OP 67718
▁Między 67694
bili 67674
▁zapach 67674
atem 67672
▁dzisiejszego 67672
▁środowisko 67671
▁Dia 67648
dle 67641
▁śnie 67623
▁Żydów 67585
czały 67581
▁placówki 67572
▁zawodowej 67569
▁Ali 67566
▁(20 67558
kł 67548
▁przekształ 67543
▁konsul 67527
▁koni 67524
▁zawartych 67505
pła 67500
▁skry 67483
▁początkowo 67482
▁przyczyny 67470
▁plecami 67468
▁pogląd 67436
▁cisza 67421
▁spółdzielni 67418
skiemu 67408
▁politykę 67379
▁Najwyższej 67378
▁ziem 67370
▁Plan 67368
▁osiąg 67326
don 67320
▁nadziei 67318
szać 67312
tyki 67303
▁lepsze 67297
▁sło 67288
▁2,5 67267
▁zmarł 67266
skami 67259
▁typ 67258
▁Prokuratura 67246
▁Banku 67236
▁opa 67235
▁istoty 67221
▁serii 67219
rować 67214
▁geo 67211
jne 67210
▁oddział 67205
▁odnośnie 67193
▁utrzymać 67185
anami 67184
two 67172
▁powstanie 67171
zację 67159
▁gminę 67148
▁głosie 67137
ong 67115
▁oży 67114
jów 67101
gno 67099
▁wszystkimi 67091
twa 67090
▁filmu 67028
▁sprzed 67023
▁powrócił 67012
▁samorządy 67012
▁trybu 66986
dł 66983
▁mężczyźni 66972
▁racji 66968
▁mających 66908
▁objął 66896
rac 66888
▁pomy 66887
alna 66861
▁pracach 66852
▁nosi 66842
entów 66831
kla 66817
▁jednostka 66807
▁lokalnych 66805
▁Wło 66802
▁główny 66773
▁Polską 66765
▁górze 66718
▁et 66689
▁Wielki 66670
wanego 66668
sić 66664
▁Szu 66661
▁odpowiedziała 66646
▁słucha 66622
▁nastąpiło 66615
▁*** 66612
▁14. 66610
▁Sprawiedliwość 66603
wam 66592
byśmy 66578
Ja 66530
▁postępowaniu 66526
▁macie 66490
▁Moja 66474
▁mogłoby 66460
Ę 66458
▁obecność 66453
▁zarząd 66436
km 66407
▁Część 66399
▁budynek 66399
lski 66397
▁terenów 66387
▁dokumentu 66379
pać 66371
▁dobrej 66365
▁dz 66356
▁cokolwiek 66351
▁chłopca 66317
▁tydzień 66300
anek 66297
▁napisał 66296
▁wyjaśnił 66296
▁wysoki 66287
▁Saint 66273
▁rękami 66258
▁groma 66257
▁Urząd 66251
▁pozwolić 66242
▁Lan 66229
▁urzędów 66227
▁Komisje 66216
▁prawdą 66194
63 66190
▁tysiąc 66185
▁usiadł 66173
▁Ameryki 66165
▁(10 66162
▁przekonany 66161
▁Dz 66151
▁zakłada 66150
▁Don 66148
▁przygotowanie 66140
nom 66124
▁dowie 66114
▁Marcin 66109
▁15. 66107
▁sezon 66103
mat 66098
▁Kam 66092
▁marszałku 66078
▁parafii 66077
lera 66076
▁wyra 66063
▁zabić 66054
▁zdołał 66048
żem 66045
▁prokurator 66044
▁słyszał 66038
▁wskazał 66030
▁Er 66019
▁przekonać 66002
▁południu 65999
▁pozostał 65987
▁planów 65980
▁Gal 65979
▁specjalnych 65964
▁wydarzeń 65946
▁1918 65865
▁konkurencji 65856
ństwa 65852
▁milczeniu 65850
▁rozumie 65837
▁Rządu 65826
▁lasu 65825
▁dostał 65822
▁Dom 65811
▁danym 65807
▁historię 65797
▁Jas 65796
▁Cal 65791
żono 65780
▁mowy 65768
leń 65751
▁Zbigniew 65743
▁pracownicy 65715
uch 65689
▁głównych 65687
▁programie 65686
rin 65678
TA 65676
mal 65676
▁księ 65672
▁mro 65607
▁specjali 65587
▁zachować 65577
▁ruchem 65575
▁oskar 65549
▁prób 65535
▁wybuch 65509
▁zgłasza 65501
▁wiedzieli 65488
ryn 65479
naj 65449
stał 65436
▁niektórzy 65414
▁Uwagi 65408
?) 65404
▁win 65401
▁nau 65399
▁Poznaniu 65374
▁pil 65365
▁nieruchomość 65363
ik 65345
▁brwi 65330
▁wydaw 65325
▁Łodzi 65305
dzonego 65304
rowi 65300
tery 65299
▁chciałabym 65299
stru 65296
▁rodzice 65289
▁wyobrazić 65275
▁leków 65265
▁Roman 65219
CZ 65205
▁Bri 65204
▁produk 65189
pów 65185
▁uni 65180
-17 65176
niejszą 65173
▁Często 65166
▁uważał 65150
▁warunkiem 65150
▁niezbyt 65136
▁zdoby 65128
▁dro 65124
62 65111
▁zwycię 65081
łom 65077
▁Zna 65077
wione 65076
▁wiedzę 65073
▁debaty 65046
▁znaleźli 65036
▁placówek 65029
ałoby 65027
▁ministrem 65020
▁reguły 65016
▁robił 65011
81 65010
▁chwila 65005
▁dwukrotnie 65002
▁Moje 65000
gle 64995
▁System 64977
▁urzą 64953
▁teorii 64939
▁nieruchomo 64910
▁skóry 64891
▁zawodu 64880
towania 64844
▁skinął 64827
nionej 64817
▁gatunków 64814
▁en 64793
▁wbrew 64793
▁pos 64792
▁Radzie 64779
▁pisze 64777
▁składzie 64772
▁kroki 64713
▁opuścił 64671
▁Jerzego 64670
▁wyższych 64620
▁Problem 64590
▁Harry 64588
▁dam 64582
▁Jean 64566
▁województw 64564
▁gor 64549
▁Konstytucyjnego 64535
▁dotyczący 64489
▁kontrolę 64488
▁zmierza 64484
▁Kilka 64467
▁nastąpi 64464
▁wzbu 64458
▁przyrody 64454
▁kontrakt 64453
▁złego 64450
▁sek 64425
▁Ależ 64417
▁Kodeks 64408
lizacja 64401
śmie 64374
▁rozpoczyna 64366
▁nazwą 64365
▁czuje 64360
▁two 64360
▁wskutek 64348
▁wyraża 64348
rym 64342
▁57 64340
AM 64339
▁przestrze 64305
szono 64295
arł 64294
sły 64293
▁twoja 64265
▁następne 64227
▁proponuję 64224
▁planie 64221
▁spotkaniu 64212
nionym 64196
▁dodatkowo 64194
tru 64191
▁rejestru 64188
▁Jezus 64182
▁prawnym 64169
▁James 64168
▁dyspozycji 64140
▁zastosowanie 64140
▁skar 64139
▁Sal 64136
▁przebieg 64103
▁Stefan 64097
▁Can 64094
wier 64090
▁strach 64088
)" 64086
▁zainteresowania 64081
zem 64074
▁zas 64065
letni 64036
stami 64005
mit 63999
bami 63994
▁Ło 63990
▁Londynie 63980
▁kara 63965
ian 63962
▁przekonaniu 63959
ras 63957
żna 63950
▁Parlamentarnego 63948
▁wia 63947
▁51 63934
▁swoimi 63934
▁zapła 63916
▁Henry 63906
▁organu 63900
▁ciemno 63873
▁Skarb 63817
anowi 63808
▁Dob 63807
▁sukces 63801
▁zjawiska 63799
▁pobytu 63792
▁finansowego 63782
▁wynikających 63764
▁1919 63755
ung 63754
▁sygna 63733
har 63730
Sz 63720
▁dziedzi 63714
▁stwo 63714
daj 63713
▁najważniejsze 63660
▁zbie 63655
▁następnym 63650
tam 63649
▁stworzenia 63645
towym 63614
▁Drugi 63606
▁szczęścia 63599
▁przemy 63597
▁jazdy 63581
41 63553
▁XVI 63551
▁uczynić 63512
dzając 63500
niami 63496
▁sporo 63496
żonej 63494
▁otwarte 63462
?... 63439
rona 63430
ciąg 63406
kował 63391
▁prezent 63385
▁Park 63377
▁sezonu 63370
▁szczerze 63367
▁ubo 63351
▁przyjaciel 63338
Ka 63334
▁wychowania 63325
niała 63320
bat 63308
▁właściwe 63295
▁zamy 63291
loną 63290
▁materiały 63285
▁Janusz 63279
▁słab 63279
▁stosunki 63275
▁proste 63264
▁chrześcija 63260
▁wyg 63185
ts 63181
▁postęp 63180
ół 63170
▁wyło 63170
▁ju 63153
ade 63150
▁jedyny 63142
rani 63137
łość 63132
▁pozytywnie 63116
żeni 63112
▁Pas 63110
▁Obie 63109
▁charakteru 63103
▁Kro 63098
bą 63088
▁widziała 63085
ryj 63058
▁Oni 63056
▁Marka 63047
AC 63045
▁1972 63044
try 63040
▁szedł 63038
dzieli 63036
▁pójść 63029
▁stosunkowo 63018
tha 62990
▁Ter 62974
▁okrą 62934
▁ukończył 62931
▁służbie 62929
▁leżał 62928
▁dzieckiem 62906
▁przyby 62889
▁siłę 62881
▁Jednym 62876
▁Jacek 62861
pią 62857
▁dziewięć 62848
▁strona 62804
II 62789
▁1976 62786
IS 62782
ora 62779
▁odbi 62756
▁rejonie 62753
▁analiz 62735
▁kształcie 62734
śla 62728
▁wybór 62721
▁osiągnąć 62709
▁daw 62703
▁łatwiej 62695
▁Otwieram 62689
▁żebyś 62676
▁stru 62668
stycznym 62663
▁Com 62654
▁zmu 62644
ye 62622
▁sia 62621
▁naru 62617
ns 62589
▁wykorzystać 62581
▁twoim 62571
▁pomyślała 62565
▁Paw 62551
▁(3 62549
▁służbę 62526
▁stopy 62499
▁granicach 62498
▁Żeby 62482
42 62459
▁Pal 62419
lom 62417
wny 62412
▁krzyż 62380
▁tygodnie 62372
nne 62360
▁Trybunał 62357
▁pełnił 62344
ford 62318
▁niedawno 62317
dzania 62305
▁dyskusja 62260
▁muzyki 62260
▁społeczności 62259
bal 62220
▁status 62218
▁Sprawa 62213
▁oddziału 62213
▁mor 62211
▁córki 62207
▁Ve 62206
▁dotyczącą 62200
▁Antoni 62197
▁1968 62195
gr 62172
▁powtórzył 62172
▁białe 62165
▁Bre 62129
▁ważny 62124
▁Mart 62119
▁stworzenie 62113
▁1970 62098
▁mnóstwo 62098
▁trans 62082
▁porząd 62078
▁określony 62070
▁Warto 62069
▁dodatku 62067
▁przyjęte 62057
▁szpitala 62033
▁oświadczył 62029
▁poprawką 62024
▁mężczyzny 62007
▁zagadnienia 62002
żny 61994
raż 61988
▁rozmowę 61988
▁funkcjonariuszy 61983
▁gwiazd 61979
▁Uniwersytecie 61977
▁winy 61942
▁doświad 61941
▁funkcjonowanie 61918
▁fizycznych 61905
▁Wówczas 61901
jesz 61900
▁gdybym 61890
mienia 61889
▁lek 61869
▁pojęcie 61864
▁190 61862
ownie 61852
▁oczywiste 61827
▁mów 61825
▁1978 61824
▁sły 61797
▁szybciej 61782
▁prosić 61781
▁ocenia 61775
▁poprawy 61773
▁Edward 61768
▁from 61766
trzy 61752
▁zastęp 61745
▁ewentualnie 61744
▁pojawiły 61744
▁pojawiła 61696
▁powrót 61679
▁kontakt 61677
▁koncepcji 61673
▁sł 61662
▁Wyniki 61643
kali 61636
▁ustalenia 61636
żyły 61631
▁artykułu 61619
61 61568
cznik 61568
▁ledwie 61563
▁spotkać 61556
oba 61555
▁utra 61541
▁dwudziestu 61522
▁małej 61507
▁Hor 61483
▁ważna 61470
▁młodzież 61467
▁Kie 61459
▁Jedno 61453
▁żołnierze 61435
▁ubezpieczeń 61432
▁przekracza 61426
▁regionu 61423
owskich 61414
▁wierzy 61396
nięciem 61389
Do 61388
▁1973 61388
▁samochodów 61378
port 61371
Mar 61361
wek 61348
▁Zło 61342
▁przekazać 61329
▁obszaru 61308
▁duchu 61289
▁Demokratycznej 61284
▁Prezydium 61280
▁pamięć 61277
▁sędziów 61266
▁wodzie 61242
▁zgodził 61218
lonego 61209
ire 61202
▁Fer 61191
▁żonę 61178
alnym 61155
▁przej 61140
▁stare 61134
▁córka 61131
▁1975 61124
▁małą 61110
▁trzydzieści 61110
• 61097
KS 61086
▁del 61064
▁obecny 61054
▁grudniu 61052
▁zakończył 61051
wiło 61041
-16 61027
▁zle 61024
▁zbior 61018
▁Oprócz 61010
▁podoba 61006
car 60998
▁dochodzi 60984
dzące 60981
▁pog 60974
▁oddziałów 60939
▁sportu 60922
▁start 60921
OM 60916
▁1979 60903
cielem 60901
▁wydanie 60901
▁zakładu 60888
▁posta 60873
▁abyśmy 60853
owę 60848
▁oświet 60820
rzyły 60817
▁wypowiedź 60804
▁Aleksandra 60798
▁czerwcu 60791
▁pię 60778
▁kru 60774
menty 60773
▁ogół 60757
▁1975–1998 60741
▁bur 60731
▁podzie 60730
▁częściej 60729
▁tradycji 60728
dowe 60723
▁złota 60722
▁Mnie 60717
▁hrabstwie 60714
▁Musi 60703
▁odpadów 60693
▁ję 60678
▁zbli 60674
▁Marii 60669
jami 60634
liny 60616
▁8, 60613
▁tekstu 60585
▁godzinie 60580
▁aktów 60570
▁różnego 60570
▁Świętego 60556
± 60551
rzona 60548
▁składek 60536
rywa 60527
czości 60526
▁Wynik 60526
anina 60505
▁pomi 60504
▁kłopoty 60499
▁podwyż 60495
niom 60473
ban 60472
ker 60466
zów 60429
▁maj 60428
▁żoną 60426
▁Grand 60424
▁przypadków 60414
▁zbliża 60409
▁podział 60408
▁Przede 60390
▁58 60364
▁proc 60343
▁licznych 60339
▁ślady 60337
▁zapisów 60325
▁brał 60320
▁książek 60311
▁Zagranicznych 60308
▁cud 60299
▁okrę 60292
▁zza 60281
▁finansowanie 60268
▁Lin 60228
▁ex 60226
OL 60221
▁parlamentu 60221
▁ciężar 60216
▁wyborów 60209
▁własność 60198
▁wód 60197
▁cywilnego 60193
pki 60188
▁Zawodnik 60174
owne 60167
czar 60165
▁zasadę 60136
▁wynikiem 60132
▁dyrektywy 60112
▁transport 60105
nt 60098
▁podobny 60095
▁William 60094
▁twarzą 60077
▁doprowa 60073
▁gospodarstwa 60070
los 60061
▁fragment 60045
▁Dan 60005
sią 60000
▁zakaz 59993
▁chłopak 59991
▁korzystać 59991
▁Cu 59989
śle 59955
▁pałacu 59941
▁nikomu 59940
▁przedstawione 59938
trze 59924
czała 59922
owice 59917
▁Radę 59916
▁Mark 59912
tową 59905
▁pogo 59861
▁większy 59843
▁okazał 59828
▁dowódcy 59827
▁Sar 59819
lizm 59803
▁peł 59803
▁zdra 59801
▁Far 59798
▁Kali 59798
La 59797
▁specjalnie 59797
▁kończy 59790
jny 59788
▁naby 59787
▁dowód 59784
▁inter 59773
▁zgodne 59756
▁far 59735
▁stosunek 59735
▁banku 59726
▁Jakub 59719
tują 59716
▁patrzeć 59710
▁Towarzystwa 59704
▁zag 59696
▁podjęcie 59684
szeniu 59678
vel 59677
▁kilkanaście 59675
sek 59671
▁sumie 59661
▁tzn 59661
▁poto 59655
▁Odpowiadając 59633
▁wycof 59631
rus 59630
cając 59626
▁64 59614
▁styczniu 59607
▁Mówi 59583
▁podatkowych 59572
▁Niektóre 59563
▁mózgu 59563
żeń 59558
all 59546
▁rządów 59531
▁łzy 59518
▁stronach 59516
▁dziesięciu 59513
▁Legislacyjne 59508
▁Rejonowa 59501
▁Mac 59491
cyjnymi 59483
▁żadna 59455
▁zda 59453
▁przewi 59444
▁oszczędności 59426
▁połączenia 59425
rzyli 59423
▁będąc 59419
▁głosowaniu 59402
▁piechoty 59402
▁Br 59390
▁obowiązujących 59388
▁pochy 59368
▁złożył 59358
▁Brak 59353
▁drzwiami 59346
▁rezerw 59346
▁mię 59345
▁Niemniej 59339
▁Lud 59337
▁spotkań 59316
▁systemów 59315
żej 59313
▁mówili 59307
▁kul 59300
▁komu 59299
▁powięk 59299
▁związki 59296
▁pali 59295
▁zapewnienie 59292
-15 59285
▁Dor 59280
▁Hiszpanii 59280
▁maju 59275
▁podstawę 59273
▁dotyczącego 59271
▁powodzi 59255
An 59249
▁zabierze 59249
▁am 59222
▁Krzy 59206
▁zaszczyt 59200
▁bla 59189
▁podłodze 59159
niać 59136
▁Woj 59129
▁Człowiek 59116
▁pełnej 59110
▁Mel 59095
▁zagrożenie 59078
▁uniósł 59066
▁pokładzie 59058
▁nauczania 59057
dziemy 59053
▁wiedziałem 59043
▁poprzednich 59038
▁Nowo 59033
▁wstrzymało 59010
▁1974 59009
▁Min 59004
▁zakończenie 59003
▁oku 59002
antów 58998
▁wyjaśnienie 58996
żne 58993
torzy 58985
▁des 58977
▁opera 58973
▁otacza 58960
▁opie 58937
▁Konstytucji 58922
▁Max 58922
set 58918
▁16. 58904
▁rządowego 58897
▁maszyn 58882
▁sztu 58881
▁Char 58863
▁sposobem 58849
▁ozna 58847
▁ograniczenie 58826
cel 58822
rzonych 58819
▁Powiedział 58793
▁zajęcia 58788
▁nieraz 58780
▁wystawi 58780
▁elementem 58766
▁przywo 58737
ys 58736
▁wrześniu 58736
lle 58731
▁wynikające 58731
▁gazu 58716
jnych 58695
towane 58685
niły 58670
tycznie 58668
▁wolność 58661
miał 58656
▁mieszkań 58637
▁stwierdza 58634
▁polską 58630
▁zasada 58599
WE 58588
▁potrzebna 58575
▁wraca 58575
▁myślą 58559
▁cechy 58551
▁środek 58549
▁1960 58540
▁bywa 58537
▁zab 58524
iz 58519
szonych 58516
ściu 58513
▁Las 58495
wili 58494
▁zainteresowanie 58458
▁poprzedniego 58450
▁patrzy 58442
▁przeprowadzenia 58439
▁Film 58430
▁(5 58410
▁VIII 58406
▁następnych 58392
czących 58362
▁wymienionych 58343
▁narze 58323
▁ana 58308
▁rozum 58302
▁krzyk 58300
▁sercu 58280
▁podmiot 58260
▁uczucie 58258
wna 58254
lum 58235
▁tacy 58234
▁dostos 58227
▁płac 58225
▁podstawowej 58217
zą 58209
▁takimi 58196
▁większych 58191
▁soli 58165
ens 58136
▁kampanii 58133
▁radości 58120
▁źródło 58112
▁producentów 58106
▁20. 58104
▁społeczeństwo 58098
▁napis 58095
▁przyznał 58095
▁Thomas 58081
gni 58079
▁znalazły 58075
▁ud 58070
▁Posła 58058
▁piękna 58055
▁Kru 58052
▁fo 58050
bry 58044
▁zdobyć 58040
lizmu 58024
▁stracił 58022
▁lę 58009
▁Liczba 57999
▁małym 57994
jna 57981
▁sła 57978
iem 57974
▁terenu 57945
▁przypad 57908
▁medycznych 57886
ue 57880
▁artykułów 57866
▁Narodowy 57862
nioną 57852
czania 57832
▁karierę 57825
▁Tyle 57821
▁Instytut 57817
▁przewidy 57812
▁przygotować 57796
▁budownictwa 57781
łki 57777
▁wojewódzkich 57777
alnej 57767
▁waż 57756
▁przychodzi 57752
anii 57745
▁dokąd 57739
ise 57737
strze 57737
lając 57732
słu 57732
▁Hel 57727
▁Va 57694
▁nieo 57691
▁niebie 57687
▁opinia 57684
▁gatunek 57677
▁małego 57676
dają 57667
▁Zachód 57656
▁byłam 57645
▁1943 57642
▁aktywności 57639
KA 57622
▁nadzór 57615
▁życiem 57615
pier 57609
styczną 57595
▁czuła 57594
▁zły 57592
▁śli 57581
▁przyjaciela 57558
▁stanowić 57552
▁prawdziwe 57545
▁większa 57535
▁zastanowić 57535
▁kier 57530
rzeń 57528
▁chu 57526
▁przewodnicząca 57516
▁siedzi 57513
▁niemieckich 57502
Mo 57483
▁okiem 57481
▁przyczyną 57479
▁wróci 57473
▁trzeciej 57464
▁sprzętu 57460
val 57457
▁wyrazy 57456
gam 57451
▁Przyj 57441
▁Kancelarii 57436
▁klucz 57429
▁granicę 57423
▁chłopiec 57407
▁pocie 57401
▁Byłem 57398
▁młodego 57397
▁rę 57384
ńców 57379
▁łago 57361
▁oficerów 57359
▁stworzyć 57351
▁firma 57348
▁gospodarce 57346
▁przeciwny 57334
▁miałam 57317
▁trzeciego 57314
▁dziećmi 57286
szewski 57275
▁okręgu 57275
▁World 57234
▁starał 57226
▁kandydatów 57220
▁hotelu 57219
▁rządowym 57212
▁Hen 57210
▁Wrocław 57204
ruje 57200
▁dzisiejszym 57199
lnymi 57194
▁podał 57170
łek 57158
▁95 57154
▁zro 57131
▁funkcjonuje 57114
▁logi 57105
szli 57094
dek 57090
▁Del 57085
▁nadzor 57078
▁pisał 57036
▁francuski 57033
▁zało 57005
▁mru 56993
▁profesora 56987
▁wychodzi 56983
▁stawia 56970
▁Czer 56962
▁potrzebę 56947
grafii 56935
▁1977 56923
▁mieszkańcy 56916
▁Prezesa 56875
▁przedmiotowej 56852
▁przer 56852
▁Chrystusa 56848
▁konsultacji 56848
▁uwzględnia 56832
▁Polacy 56825
▁krokiem 56823
▁skrę 56815
▁ustęp 56796
▁10, 56794
▁obaj 56786
▁dyplom 56783
▁narodowego 56760
ž 56745
▁pop 56744
▁znać 56734
▁miastach 56726
unk 56725
▁pokazać 56711
▁przedmiot 56709
▁Nowa 56707
▁kolej 56704
▁oznajmił 56689
▁szuka 56683
▁przeciwdział 56673
▁cech 56669
▁Jorku 56668
▁granic 56664
▁najlepsze 56661
▁Two 56650
▁obawy 56623
▁żywo 56622
▁pasa 56619
▁twojej 56619
asy 56611
▁gitara 56609
▁całość 56598
▁1941 56594
▁tk 56583
▁ślad 56581
▁Posłowie 56561
▁sze 56556
gania 56553
▁oczyma 56540
▁Bry 56534
▁zaw 56531
▁zajmował 56528
▁drużyny 56516
▁ochronę 56500
▁złożyć 56495
▁Wielka 56487
▁szyi 56460
▁studentów 56454
▁śmiechem 56447
▁klas 56441
śl 56439
▁nieprze 56439
▁braci 56429
▁obecnym 56429
zio 56417
▁Zak 56400
▁oszczę 56399
▁Inne 56390
▁Bank 56388
▁hi 56383
▁cywi 56380
akiem 56372
kry 56367
▁skierował 56359
▁trafił 56340
▁gę 56338
▁Miasto 56336
▁arty 56327
sło 56316
▁deszcz 56316
▁musiały 56316
▁Możemy 56313
:1 56308
▁port 56307
▁Brze 56305
▁konferencji 56297
▁starannie 56294
▁12, 56291
▁stopniowo 56286
▁Jaka 56275
czam 56259
▁przedsięwzięcia 56257
▁środkami 56254
▁tematy 56244
▁ramieniu 56239
sor 56227
▁wojskowej 56218
▁2: 56198
▁trój 56198
▁stopni 56176
ies 56173
▁uwaga 56173
sel 56156
▁zakłady 56152
▁spoży 56149
▁spowoduje 56146
▁pragnie 56131
▁mniejsze 56126
▁morze 56108
▁powstały 56095
▁podatków 56090
▁Poznań 56087
sona 56071
▁odbyła 56047
nak 56030
▁brzeg 56030
▁ek 56030
▁Zmiana 56024
▁narzu 56004
▁1940 55996
▁zjawisko 55988
nikach 55984
▁dobrych 55978
▁con 55966
▁klubów 55959
▁powrocie 55954
cieli 55952
▁kolor 55943
▁Miasta 55942
▁zniknął 55940
▁słowem 55933
▁towarzy 55917
▁uniknąć 55915
▁zbro 55910
dzeń 55906
▁naprzeciw 55901
▁materii 55900
prowa 55887
▁59 55887
▁pełen 55884
▁różnica 55884
▁odno 55883
▁podatek 55883
▁redak 55883
suje 55878
kły 55868
▁świątyni 55865
▁try 55864
ciły 55859
▁postrze 55856
liwość 55842
▁Che 55835
▁tygodniu 55821
▁spła 55820
▁zaproponował 55816
▁pokaz 55811
▁stylem 55806
▁ran 55801
▁PR 55794
▁owa 55792
▁gwaran 55787
▁Cel 55783
▁państwie 55776
▁Cały 55771
Prze 55766
▁zam 55762
▁spie 55748
▁przypadki 55721
▁lewo 55713
/0 55709
▁diabła 55706
▁poł 55705
▁brakuje 55698
0) 55695
▁zawo 55690
▁Republiki 55683
róż 55672
prawa 55671
ou 55661
▁przekaz 55659
▁postanowienia 55655
rok 55635
▁pusty 55632
▁zaczęło 55630
▁odbył 55621
▁zrobiła 55607
leniem 55597
т 55594
De 55591
▁jedyną 55584
żonego 55580
bus 55568
р 55554
cent 55522
kład 55521
▁dob 55516
entu 55513
▁Będę 55502
▁Partii 55490
żek 55488
▁krótkie 55488
▁zagro 55480
▁stanowiły 55479
▁Stanach 55464
lak 55434
▁misji 55426
ciłem 55424
▁(16 55412
▁inform 55404
▁radę 55402
▁wybrany 55373
▁przedstawienia 55372
▁str 55368
▁wojnę 55367
▁wymiaru 55327
▁środowisk 55314
▁przyszła 55310
lio 55301
▁kawałek 55301
żać 55275
▁kas 55258
▁As 55245
▁One 55238
obi 55233
▁opi 55224
▁ciągnął 55211
▁wszczęcia 55195
czące 55189
▁doświadczenie 55176
▁Los 55175
▁krajowej 55175
▁płci 55175
▁banków 55168
▁ochotę 55168
▁mili 55156
anna 55154
▁żył 55150
▁spojrzeniem 55141
▁mogłyby 55139
▁brać 55136
mą 55128
▁Programu 55122
▁Gil 55115
▁wyjątkowo 55110
▁kapitału 55103
▁1946 55093
▁subwencji 55088
▁artykuł 55080
▁sch 55079
IN 55071
▁udostęp 55065
▁199 55064
« 55058
lij 55051
▁Matki 55042
▁powi 55042
chała 55041
▁niemieckiej 55039
▁załogi 55039
ction 55031
mując 55020
▁Początkowo 55006
▁62 54996
▁najlepszych 54983
▁zakładach 54979
▁praktyki 54976
kować 54975
▁rocznie 54969
ght 54960
▁pisarz 54960
▁przypadek 54958
▁zwraca 54945
▁lipcu 54928
▁większym 54925
▁kocha 54913
▁zawodach 54912
▁umowę 54907
▁Wę 54891
nictwa 54887
▁kobietę 54869
▁dotarł 54854
▁van 54853
żoną 54852
▁wypad 54846
gać 54795
▁pośrednictwem 54779
▁głosowało 54764
Śródmieście 54757
▁kapitał 54754
▁posu 54754
▁związana 54734
logiczne 54720
▁Powiedz 54720
▁papier 54688
dowy 54686
jał 54682
▁67 54669
▁słusznie 54666
▁Ubezpieczeń 54655
▁1956 54649
▁napi 54644
nictwo 54637
▁spać 54629
▁Niektórzy 54628
▁pracownika 54627
▁względów 54626
▁Zosta 54614
▁kraje 54587
▁trafi 54587
▁prośbę 54568
▁Matka 54540
▁opinie 54524
▁dołą 54507
▁stwier 54506
▁szczegółowo 54505
▁Die 54501
▁Zach 54471
▁Wz 54465
▁Mając 54454
▁grał 54447
NE 54437
▁IX 54436
▁Is 54432
▁zatwier 54426
▁dzieło 54419
.0 54391
▁Bla 54388
▁występował 54384
nieniem 54381
ktor 54374
▁progu 54345
nieniu 54344
▁Jedna 54337
▁wzięła 54337
▁Czar 54333
▁obszary 54324
–18 54318
▁strategii 54318
czymy 54307
nos 54299
▁dostrzegł 54281
▁odrzekł 54271
▁konkretne 54266
▁zdążył 54261
▁SS 54238
▁zje 54223
▁skończy 54222
▁Konkurencja 54221
van 54219
▁Samo 54219
czanie 54217
▁1954 54217
▁dofinansowanie 54217
▁krótkim 54208
▁ścianę 54201
▁istotnie 54199
▁popiera 54186
▁położył 54185
▁Ukrainy 54180
▁wierzyć 54170
tuję 54163
▁współprac 54160
▁Bezpieczeństwa 54159
▁ścianie 54147
▁stamtąd 54143
peł 54136
▁wyrobów 54136
trz 54133
▁Stary 54127
▁palcami 54126
▁szczegółowe 54120
▁3) 54112
▁wydawał 54112
▁najszybciej 54104
▁nogami 54092
▁cu 54081
▁zajęć 54076
▁ludzkie 54064
▁Infrastruktury 54053
niejszego 54050
▁kadry 54040
ciło 54031
▁nagrody 54030
án 54029
▁aktu 54024
▁prywatne 54024
▁wyko 54024
▁wydarzenia 54016
wicza 54009
▁Mówię 54008
▁twór 54008
▁stolicy 54003
▁przyłą 53999
▁szkoła 53998
▁17. 53995
▁formę 53995
▁1000 53992
stawi 53981
▁Jezusa 53977
niały 53975
▁generała 53973
wanej 53970
gre 53934
▁interesy 53932
▁śpi 53929
▁wskazują 53923
▁wytwo 53911
▁wykaz 53899
cjon 53882
▁osobie 53851
▁porozmawiać 53840
▁dalszej 53838
▁dziesią 53812
wiania 53811
▁kolo 53801
▁dawnych 53799
▁ludzkiej 53793
▁niegdyś 53792
▁Lewicy 53782
▁West 53779
▁powstrzymać 53774
▁dotychczasowych 53773
▁przeze 53773
▁marcu 53772
▁opat 53759
▁zer 53744
▁Maciej 53740
▁zawodów 53724
▁ża 53724
▁komór 53722
▁poparcie 53714
▁XVII 53691
gii 53682
óż 53658
▁zakup 53653
▁uzasadnienia 53647
▁wielko 53645
▁Ak 53642
▁66 53638
▁główne 53626
▁zbrodni 53623
▁wyprze 53615
▁podobnych 53614
-023 53602
▁Sama 53580
▁stosowane 53566
szając 53551
▁63 53540
▁paliw 53527
▁pułku 53486
▁reakcji 53484
▁pytał 53483
ryt 53482
mił 53481
▁kierunek 53466
▁odszedł 53464
▁zwierzęta 53461
▁cywilnej 53460
▁mia 53449
▁spotyka 53439
▁izby 53433
▁śmiercią 53424
▁tajemnicy 53422
▁miecz 53414
▁indywidualnych 53388
▁prokuratora 53386
▁Zo 53382
▁,, 53380
stein 53378
▁Euro 53365
▁wywie 53362
▁czuję 53350
▁służy 53348
dając 53344
pera 53338
▁koncer 53318
▁stałe 53315
▁CD 53310
▁walczyć 53309
▁wieży 53306
▁pacjenta 53292
▁dosta 53291
▁zacząć 53288
▁Kos 53283
łka 53254
▁Ludowej 53215
▁rozwija 53206
▁interesu 53194
▁Men 53188
▁Sportu 53186
▁stanowisk 53184
stanie 53182
▁składki 53159
▁18. 53155
▁68 53149
▁1:0 53134
▁wyj 53130
▁organi 53111
gia 53104
pon 53085
gl 53081
▁papie 53067
▁3: 53053
jan 53009
tta 53005
▁obrębie 52991
▁pobie 52986
▁spółka 52982
▁wydzie 52973
▁Znowu 52967
▁SP 52962
▁cień 52949
▁prowadzą 52931
enta 52927
stała 52908
tość 52906
▁najwyraźniej 52881
nera 52879
▁korzystania 52868
▁współpracę 52858
▁konsekwencje 52856
łowie 52853
▁1948 52841
ari 52839
▁Spojrzał 52836
▁wiąz 52832
▁wyroku 52831
▁Wielkiego 52814
▁zabezpie 52811
▁1971 52807
▁miałby 52799
▁obywatel 52779
▁mono 52774
▁odbyło 52765
▁Op 52759
alnego 52757
owskie 52752
▁tur 52746
▁eko 52731
▁synem 52725
▁And 52721
US 52717
▁imienia 52709
mentu 52693
▁sprzedaż 52689
▁1942 52680
▁Spacewatch 52676
▁obszarach 52655
rzeniem 52653
▁XII 52653
▁południowo 52650
▁wysy 52644
ux 52639
rane 52633
▁Grzegorz 52616
vin 52614
▁myślenia 52612
▁chi 52606
▁Marian 52601
▁wier 52597
▁występ 52595
▁ustroju 52592
▁krwa 52583
▁emerytury 52570
▁należał 52560
▁Społecznych 52551
Ar 52546
▁zwyczaj 52540
cyjno 52536
▁głowa 52532
к 52527
logicznych 52525
05 52508
▁ramienia 52505
▁em 52487
▁sprzeda 52487
▁uśmiechnęła 52469
▁gospodarcze 52455
pali 52436
kając 52412
żał 52408
▁zastrze 52408
▁Ryszard 52382
▁kart 52380
żyłem 52378
▁drzewo 52375
▁Wsi 52369
▁wyglądała 52362
▁mikro 52350
▁Moim 52348
rzeniu 52347
waliśmy 52338
▁ziemia 52313
Wi 52312
▁sekund 52308
▁urzędników 52298
żonym 52290
▁oprac 52270
▁wybi 52269
ston 52265
▁siostry 52253
czyka 52234
dowych 52228
nać 52219
▁korzyst 52217
▁literatury 52211
▁naukę 52207
▁74 52196
anach 52191
▁Adama 52178
dniej 52170
▁liczy 52164
▁posiadają 52163
dzisz 52143
▁Mak 52119
bów 52115
SZ 52105
sków 52099
▁psa 52097
▁sprawia 52094
▁społecznym 52091
▁sferze 52070
gal 52066
▁zasobów 52060
▁dawniej 52049
▁realiz 52035
▁Nat 52016
▁zmniejszenie 52013
▁ważnych 52010
fra 52000
▁najwięcej 51992
▁chorób 51987
▁wyb 51983
▁pozba 51975
zar 51963
▁Wiedział 51963
▁karty 51945
▁kup 51941
▁83 51933
▁nało 51922
wskiej 51919
▁72 51919
▁1969 51915
▁raport 51914
▁spadek 51913
▁uczestników 51907
▁zani 51906
eł 51899
▁urzę 51899
▁zachę 51898
▁fanta 51884
karz 51881
Ó 51878
▁wykry 51877
01 51863
▁materia 51848
▁okazać 51847
▁cią 51842
▁kana 51840
▁Zu 51838
▁wspiera 51833
▁doświadczeń 51818
▁zb 51814
▁wydany 51805
usa 51775
▁Głosowało 51769
szczę 51766
▁At 51763
▁Europejską 51763
▁zachodniej 51759
▁uprze 51753
pin 51747
▁szczegółowych 51747
▁resztę 51744
▁jasna 51732
▁łączy 51728
▁czer 51722
dło 51719
▁zwrotu 51716
▁ost 51714
▁las 51707
▁opo 51699
szania 51697
▁będących 51688
▁odpowiedni 51688
▁bitwy 51679
▁chwy 51666
▁konkretnych 51665
▁westchnął 51661
▁symboli 51658
▁wyklu 51653
▁przyszłym 51640
pami 51634
▁ojcem 51627
▁przejścia 51626
OD 51625
▁tematu 51622
ther 51619
▁osobowości 51610
▁powsta 51592
Sa 51590
strzy 51590
▁bohater 51585
▁City 51574
▁21. 51565
tując 51564
atyczne 51563
czeństwa 51552
graf 51544
▁właściwości 51537
▁pytam 51514
▁Życie 51511
▁Azji 51509
zj 51508
ktu 51501
pisy 51500
▁Aires 51493
dzanie 51482
▁wpły 51474
▁stół 51467
▁zawodowe 51464
▁zaznaczyć 51440
▁niem 51435
łat 51425
▁parafia 51414
▁wyczu 51411
chami 51407
▁październiku 51406
▁ligi 51404
▁przenik 51404
rez 51396
laz 51395
▁wyrazić 51392
▁robią 51385
▁rozległ 51379
▁zawodowego 51370
▁właściwym 51364
▁Buenos 51362
▁majątek 51350
Ra 51339
lim 51334
lor 51313
alną 51311
▁wpadł 51311
▁dwaj 51306
dzonym 51304
▁nowi 51290
▁wpływa 51290
▁walkę 51282
▁ryzyko 51277
wanym 51274
▁przeznaczonych 51269
▁Pucharu 51265
fia 51262
▁efekt 51258
▁zni 51249
▁powierzchnię 51248
▁licząc 51244
▁zwycięstwo 51239
▁kamień 51232
▁smo 51221
▁językiem 51217
▁zmy 51217
▁byle 51214
▁wprowadzono 51211
czają 51207
▁komisje 51207
akie 51204
▁wóz 51196
▁obcych 51192
▁nosem 51191
ius 51182
▁NA 51175
▁Zamykam 51175
▁opiera 51174
▁gwiazdy 51171
dzeni 51168
▁okazję 51166
▁mama 51156
▁zdjęcia 51156
▁świadczy 51155
▁kobietą 51137
▁sytuacjach 51132
▁kątem 51126
▁Czego 51119
▁byliśmy 51113
▁grę 51112
łych 51105
▁zie 51100
gnął 51099
▁gatunku 51096
▁realizacja 51091
jając 51086
▁stawki 51054
▁składu 51049
▁kurs 51042
▁¦ 51036
gowy 51034
▁gła 51030
▁sprawozdaniu 51028
▁dzielnicy 51010
line 51007
ryz 50991
niz 50990
▁społeczno 50990
▁szczy 50990
ale 50988
▁kryterium 50987
▁rozpro 50972
pen 50966
▁Oczy 50942
▁zatrudnionych 50932
▁procesów 50928
▁rozumieć 50923
▁sytuacją 50914
▁rzą 50906
▁Smo 50903
▁przemie 50896
▁Fu 50887
▁ofer 50882
▁zatrzymać 50864
▁podstawą 50857
rzały 50855
▁zadebiutował 50849
▁chroni 50847
▁Ot 50844
▁ciężkie 50840
jek 50820
▁zapi 50819
sce 50795
▁sil 50792
▁kryzys 50773
▁istotny 50759
▁wiedząc 50750
ag 50745
mieni 50741
▁podejmuje 50729
pły 50710
▁zbiera 50707
▁lit 50699
▁powyższego 50699
▁otrzymała 50686
▁1938 50670
▁zasłu 50670
▁mógłbym 50666
siła 50658
▁zabrał 50658
▁ośrodków 50654
▁najważniejszych 50651
▁głosować 50645
▁zabytków 50634
▁dojść 50631
▁piękne 50623
▁głównej 50616
▁Kan 50604
▁Tat 50604
▁głów 50603
▁dało 50602
field 50595
ranych 50588
:00 50587
▁czasy 50584
chać 50580
▁użytk 50574
▁więzienia 50572
pienia 50570
yn 50562
▁Będziemy 50562
▁zbu 50554
▁1964 50551
▁siostra 50546
nnych 50535
rała 50535
▁dotycząca 50515
▁wyspy 50498
dzący 50494
▁zgłoszeń 50491
▁zdrowie 50481
▁znajdowała 50468
▁Pomimo 50448
▁szepnął 50446
▁siła 50444
racji 50440
▁Przypomnę 50440
oni 50426
▁rzędu 50426
▁zastrzeżenia 50426
▁specjalne 50415
▁gi 50403
& 50376
▁201 50375
▁oboje 50372
▁parku 50364
▁Franciszek 50331
czycy 50320
▁powrotu 50319
▁Vo 50315
▁gaz 50315
▁ludzkich 50310
ú 50291
▁krótki 50291
▁atrak 50288
▁wschodniej 50287
cjona 50284
▁zgodzić 50284
55 50274
▁Byli 50267
ganie 50257
▁terenach 50257
▁przeprowadzić 50255
▁dała 50253
..." 50252
▁przypadkiem 50251
▁ogólno 50234
▁rodzinnych 50226
▁koch 50219
liwości 50212
szonym 50210
rzyło 50202
▁religii 50200
▁Wielu 50195
▁poprzedniej 50195
-12 50189
▁uchy 50174
▁zja 50168
▁uwie 50152
▁doj 50149
▁ubiegłym 50146
dan 50145
▁wspólne 50141
▁dostrze 50140
▁członkowskich 50139
Pro 50131
▁książkę 50128
▁dalszego 50123
▁przestrzeń 50116
▁Mad 50110
▁otwarcie 50108
waną 50099
▁Liga 50098
▁osła 50088
▁schodach 50086
▁zaufania 50086
▁funda 50084
▁wydane 50074
▁powód 50069
▁Wrocławiu 50056
▁kolana 50055
▁wyku 50053
▁włą 50040
▁Pet 50037
szają 50035
▁wyle 50026
▁Platforma 50019
▁źródłem 50018
▁potę 50006
▁wybie 50006
ig 49999
Ń 49989
▁(195 49979
▁her 49976
ander 49974
▁Stronnictwa 49972
▁przypomniał 49966
▁Witam 49948
▁bank 49948
▁orzeczenia 49947
▁Pla 49945
▁wyjaśnia 49937
▁dziwnie 49934
▁technologii 49930
lonym 49928
▁listopadzie 49928
▁zdoła 49916
▁strefy 49912
▁konstrukcji 49909
▁przechodzi 49904
▁< 49902
▁uło 49889
▁wnioskodawcy 49889
▁granice 49884
▁ścią 49875
▁sportowych 49874
▁najlepszym 49866
▁wszech 49857
onie 49845
bl 49844
pom 49844
▁byłyby 49825
ase 49824
▁szyb 49819
cjom 49816
▁rozumieniu 49814
▁konserwa 49797
▁Sejmowi 49793
tos 49785
▁inwestycyjnych 49773
▁międzynarodowej 49767
▁cesarza 49757
▁państwowe 49750
AS 49748
▁autora 49747
▁Obok 49743
▁prywatnych 49742
▁podłogę 49738
way 49733
▁systemem 49731
cep 49729
lizować 49721
▁modelu 49716
▁11, 49715
▁gospodarczą 49711
▁Europejska 49710
▁zob 49703
▁akcep 49691
dowej 49687
▁pozostało 49686
▁dłonią 49685
▁Tri 49684
▁Dro 49682
▁nogach 49676
▁Filip 49670
▁słychać 49663
Me 49653
▁regulaminu 49653
▁stwierdzenie 49640
▁Dra 49636
▁kształ 49632
▁przykry 49632
▁przesu 49630
▁przygotowy 49619
▁liczbie 49618
▁pozwolił 49613
▁zre 49590
▁zrozumienia 49587
▁cesarz 49572
▁cał 49571
wskim 49570
▁połowę 49567
fika 49564
▁Sara 49557
▁straż 49556
▁Rze 49547
iła 49544
▁sty 49544
▁ciele 49543
▁osad 49540
▁grozi 49535
▁jednoznacznie 49534
bieg 49532
▁interpre 49530
gru 49528
▁członka 49525
▁width 49525
eno 49514
▁dwor 49511
▁Inter 49508
lonej 49504
▁(„ 49501
▁oczeki 49500
▁Ludowego 49493
▁ostatnia 49490
lno 49488
▁areszt 49488
▁poku 49487
▁wzroku 49484
illa 49473
nąwszy 49472
▁gorzej 49472
ZE 49471
mię 49453
mil 49449
▁zamk 49426
▁środowisku 49423
▁okazuje 49415
▁Wojska 49392
dzała 49390
▁słyszałem 49390
▁tytułem 49387
▁najlepszy 49384
▁ST 49372
-14 49362
▁planuje 49361
▁wróciła 49359
mami 49352
▁następ 49350
▁robo 49338
▁poprzednio 49330
▁Ex 49329
▁skutecznie 49328
▁ekspertów 49324
▁związ 49324
ralne 49304
▁wykrzy 49285
▁Chciał 49283
▁argumenty 49277
▁uli 49273
▁Fre 49266
▁fla 49257
▁wejście 49238
▁wą 49235
▁kariery 49231
pel 49218
▁ofiary 49217
▁zamian 49216
▁przebiegu 49200
tnik 49193
▁publi 49187
gram 49180
lep 49179
.- 49175
lika 49170
▁spotkał 49168
ciela 49164
dzonej 49162
chę 49159
▁normy 49158
▁jeziora 49144
12. 49138
▁Cam 49137
▁You 49128
▁pełna 49106
stek 49093
▁pr 49090
▁zajęła 49089
▁umowa 49088
ństwem 49079
▁kwocie 49073
▁niemieckiego 49070
▁włosów 49068
▁wpływy 49066
▁obrazu 49064
▁wyjaśnień 49060
▁Krajowego 49059
▁dzieli 49040
▁ślub 49026
▁9, 49025
▁kolegów 49021
▁wysokim 49020
▁Razem 49019
▁postanowieniem 49015
▁upo 49006
▁Sil 49003
▁konsu 49001
▁Sekretarz 48998
▁wart 48997
▁Oznacza 48996
czyków 48964
▁kwalifikacji 48958
▁1967 48955
▁sal 48954
iera 48950
▁Rzym 48943
▁Legislacyjnego 48941
▁kapitana 48939
▁olimpijskich 48934
▁niemu 48933
▁największych 48932
cus 48927
▁czoł 48911
▁okręt 48911
▁opodatkowania 48882
▁przyjmuje 48881
▁słabo 48879
▁grani 48878
Al 48874
jać 48873
▁sierpniu 48856
▁osa 48853
▁kredytu 48848
▁Owszem 48845
▁pewność 48841
▁największe 48836
▁ryzyka 48833
▁Nowego 48826
▁Daniel 48817
▁gabinetu 48796
▁wypełnia 48786
▁ham 48785
▁Unia 48779
▁sprzęt 48775
ceni 48765
н 48764
▁ważną 48764
▁spodzie 48756
▁poszła 48755
▁starszy 48740
fil 48737
ime 48737
▁średnio 48731
▁silnie 48729
▁nastąpić 48727
▁mięsa 48722
▁Czyżby 48719
▁Przedsiębior 48719
nili 48715
▁Uni 48709
▁przedstawiam 48709
▁przybył 48696
▁Odnosząc 48694
▁1950 48689
▁awans 48679
kimi 48674
▁skorzystać 48674
tości 48669
▁wyrazem 48664
▁wiejskich 48660
▁czarny 48657
▁wil 48634
▁plecy 48628
▁delikatnie 48626
ctwie 48615
▁ludu 48607
▁zastosowania 48604
▁wpływów 48593
▁zgłosić 48589
▁oddzie 48586
▁obcią 48583
dziesz 48582
▁Kazimierza 48581
▁zdawał 48580
▁She 48576
pienie 48563
▁Ran 48553
▁daleka 48552
▁towar 48551
dzkiego 48550
▁przyjm 48503
▁Hy 48502
▁mechani 48498
▁łodzi 48496
▁potrzebny 48494
kam 48472
▁kupić 48471
▁Tytuł 48470
▁1966 48469
▁wargi 48468
▁koła 48461
▁metod 48460
▁zbo 48453
cyjności 48446
▁Pru 48444
▁szar 48431
▁× 48428
▁spojrzenia 48422
▁ub 48422
żnych 48419
▁Niemców 48418
▁dziwnego 48408
▁twierdzi 48402
niają 48400
▁76 48392
▁otrzymuje 48376
▁nóż 48368
ownicy 48365
▁potrzebuje 48362
▁przyjemność 48362
▁wymiany 48360
EM 48355
▁straży 48355
▁zapew 48343
▁zacznie 48333
▁Zw 48329
▁młodzi 48326
dno 48322
▁Stanu 48320
ille 48275
kolwiek 48275
▁czytanie 48274
▁rolnej 48274
▁73 48271
▁potrafię 48255
▁bła 48237
▁odrzucił 48232
III 48217
▁zamknął 48205
▁wysiłku 48203
▁Nar 48201
▁póki 48192
▁usłyszę 48192
▁niejako 48190
▁samorządowych 48173
stycznie 48165
▁Pen 48164
▁pięćdziesiąt 48139
▁Czasami 48136
▁świad 48131
▁kwietniu 48130
ój 48126
▁gre 48123
▁odmowie 48121
▁efekty 48116
▁wystąpienie 48112
▁tworząc 48107
▁następny 48105
wymi 48097
łowi 48089
▁organizację 48056
▁zrze 48046
▁Henryka 48044
▁Super 48028
łon 48023
▁rozpat 48016
▁wyjaśni 48016
▁używa 48013
▁wielkość 48006
▁przemian 48002
▁szep 48001
krę 47990
▁podległe 47990
szeniem 47985
▁dopu 47982
▁wersja 47982
▁koł 47972
▁moi 47972
▁Gene 47968
ea 47956
▁Partia 47956
▁koron 47956
biera 47954
▁kryteriów 47949
▁trzym 47943
▁Dzieci 47939
▁uwierzyć 47938
▁kimś 47921
▁północnej 47906
▁byśmy 47900
▁miesiąca 47897
▁Parafia 47886
▁musiało 47880
▁przeczy 47879
▁zawodników 47878
licz 47875
▁udzielania 47875
▁usłyszeć 47871
▁najbliższych 47864
▁zapytanie 47863
▁nauczyciela 47855
▁rozpoczęła 47853
▁znana 47853
▁móc 47851
dziesiątych 47840
łej 47833
▁wnętrza 47822
tację 47818
▁ogranicza 47813
▁północno 47808
wieniem 47807
▁wymagają 47774
▁technicznych 47772
▁1947 47766
▁(4 47764
▁zakończenia 47761
▁Alex 47752
kul 47750
▁opozycji 47749
▁szkołę 47748
▁77 47746
ation 47745
▁roman 47738
▁przedmiotów 47737
▁gromady 47726
▁ogólne 47725
owicza 47722
▁plu 47713
▁obowiązuje 47712
▁zarzu 47695
▁maszyny 47693
▁przygotowany 47691
▁pamięta 47689
▁scho 47685
▁zdawało 47668
▁okien 47661
▁ludzkiego 47660
▁standar 47656
▁ude 47643
rei 47633
▁Sha 47633
▁należności 47620
sion 47601
▁prezydium 47597
▁bal 47595
▁wymienia 47594
▁profesjona 47593
pow 47590
szyło 47585
▁tereny 47569
oł 47566
▁przezna 47538
owu 47537
▁Słońce 47537
▁tkwi 47537
▁bieżącym 47534
▁wprowa 47533
▁przeważnie 47531
▁super 47519
▁wystarczająco 47517
▁córkę 47499
bienie 47494
▁przestał 47493
▁miejscem 47487
bla 47485
▁przykładem 47485
łym 47481
▁Karola 47479
chałem 47478
▁Frank 47466
▁parlament 47465
niak 47463
▁nia 47458
usza 47454
Te 47444
▁zaka 47428
▁zdrowotnych 47413
▁kolejowej 47398
lane 47388
dzkiej 47386
▁potwierdza 47386
▁sieć 47386
▁Opis 47372
▁znik 47362
niego 47361
▁reszta 47356
▁popatrzył 47344
▁opracowania 47332
▁stanowczo 47330
▁wymienione 47326
▁fal 47325
▁towarzyszy 47321
▁Także 47307
▁powiedziałam 47307
▁sięga 47297
dziliśmy 47294
▁groź 47268
▁5- 47267
▁przynosi 47266
▁odprowa 47263
▁Celem 47262
▁brakowało 47257
▁wyli 47251
▁politycznego 47236
▁Powie 47232
▁laty 47228
▁zauważyła 47220
▁Wiktor 47197
▁Miałem 47191
Ta 47183
ita 47177
▁przejście 47177
▁800 47167
▁przekazane 47166
▁budowa 47163
▁regionalnych 47159
▁dokonał 47157
▁dają 47148
nor 47143
▁uwzględnieniem 47143
▁procedur 47134
zdy 47130
rii 47129
ide 47127
▁obro 47124
int 47117
owiska 47116
▁wycie 47113
▁Charles 47110
▁otrzymać 47110
▁niepoko 47109
▁południowej 47109
▁wyrok 47105
hen 47103
▁lokalu 47100
▁­ 47095
▁najbliższym 47094
szała 47085
▁ustach 47084
▁wad 47079
▁spacer 47077
▁uderzył 47064
obie 47062
▁wieczoru 47062
▁zespołów 47061
▁brąz 47051
▁polityce 47050
▁lutym 47047
No 47042
"; 47039
▁rola 47039
▁rozważ 47038
▁bitwie 47033
▁stę 47033
▁placu 47025
ralnej 47023
▁spojrzeć 46999
▁głąb 46996
:19 46993
▁nóg 46984
▁uczuć 46983
▁zastrzeżeń 46980
▁podać 46977
▁promocji 46977
▁oświadczenia 46973
▁Agencja 46972
▁vi 46968
gg 46966
owna 46955
▁uczestni 46941
▁zawołała 46930
▁norm 46929
▁Em 46917
▁panna 46910
ralnych 46905
▁ksiądz 46901
▁Prezydenta 46881
▁zdecydował 46876
▁Port 46874
▁przesł 46865
▁indziej 46862
▁trzymać 46862
bij 46860
▁niepokój 46849
▁Zarządu 46846
▁smak 46845
▁jesteście 46844
▁Wydziału 46841
▁zgroma 46837
ściła 46822
▁wagi 46818
▁rada 46812
▁mówisz 46808
▁q 46805
▁trener 46793
▁69 46792
▁kroku 46762
.? 46753
▁wido 46753
▁małżeństwa 46751
▁rokiem 46749
▁nazwie 46744
hl 46738
zję 46728
▁Raz 46702
.; 46696
▁niewielkie 46670
▁pou 46666
niło 46652
▁13, 46649
▁fazie 46645
▁sprawami 46639
moc 46632
kanie 46622
rob 46616
▁wydać 46615
kre 46613
▁jakimi 46612
/10 46606
ati 46600
▁York 46593
niemy 46584
▁zgu 46584
▁zapisane 46583
▁zamord 46581
▁dram 46570
▁szeregu 46569
▁porzu 46568
-13 46562
nięciu 46562
tte 46547
▁skalę 46547
▁pies 46544
▁zamiaru 46544
▁1965 46537
▁tłuma 46536
▁gniew 46528
▁ot 46528
▁Medal 46522
▁silny 46516
▁krajowego 46515
▁mur 46510
▁Białorusi 46509
▁kie 46508
▁kobie 46494
▁przekonanie 46493
▁boga 46490
▁61 46482
▁zamek 46479
gin 46477
▁zanu 46472
▁założeń 46469
ól 46456
▁wydłu 46453
▁chęć 46449
ącymi 46440
▁Lip 46439
▁kę 46439
▁stwierdziła 46435
▁zwolnienia 46423
wiona 46421
▁złożenia 46418
▁ucieczki 46412
▁postępu 46393
czącego 46390
▁igrzyskach 46389
ney 46387
iach 46385
▁ozdob 46384
▁użytku 46379
star 46376
▁wydoby 46375
▁byś 46368
▁znaczne 46362
zia 46360
▁nogę 46354
▁porze 46352
Ne 46351
kując 46337
▁silne 46332
...) 46326
▁płatności 46313
▁powstaje 46299
zali 46298
▁obowiąz 46297
▁zim 46291
bywa 46284
▁mistrza 46280
▁1949 46276
ater 46271
▁twoją 46271
▁filozofii 46267
▁umysłu 46265
niętych 46260
▁kasy 46245
▁zdarzenia 46245
▁Kate 46241
▁1928 46232
▁obej 46232
szo 46225
▁czynników 46223
▁Obywatelska 46216
▁szczyt 46214
tum 46204
▁przekonania 46203
▁Mag 46202
▁Dalej 46199
▁oczekiwania 46198
▁wspomina 46192
▁rozdzie 46183
▁ukryć 46181
▁wojennych 46164
▁Kost 46163
▁istnienie 46162
via 46149
twór 46136
▁ogni 46135
▁dozna 46131
czyna 46126
▁opowie 46124
▁idei 46117
▁Widzę 46115
czając 46110
żąc 46100
▁wyma 46097
▁ocena 46086
▁160 46085
▁tragi 46082
EL 46078
▁owych 46075
▁zgadzam 46073
▁dopuszcza 46065
▁opowieści 46065
cher 46064
▁trze 46064
łego 46062
▁samolotu 46058
▁najwyżej 46052
▁pozostać 46051
▁poma 46047
▁skończył 46040
▁zaludnienia 46040
▁Shi 46036
▁przesy 46031
▁oddali 46030
▁biskupa 46025
owuje 46024
▁Bon 46023
chnął 46020
▁rozli 46018
▁Słowa 46016
▁ciąży 46009
▁sypialni 46004
▁spad 45999
▁Platformy 45998
▁Mari 45992
ert 45987
łow 45978
▁sztuk 45969
▁post 45963
piony 45958
są 45957
niania 45950
▁Człowieka 45949
▁Joe 45943
czyński 45934
▁interpretacji 45933
owemu 45932
▁Możesz 45924
▁Szkoły 45918
▁podejmowane 45916
▁kompetencje 45912
▁prawna 45911
▁osi 45902
▁prawdopodob 45902
czymi 45901
▁towarzystwie 45901
▁Znów 45897
▁rozwiązać 45896
▁78 45884
dla 45878
▁Lepiej 45878
▁zarzą 45855
▁departamencie 45854
▁---- 45852
▁świę 45852
▁organizacja 45850
▁ustalić 45842
▁sekretarz 45839
▁sejmowej 45837
dności 45832
▁(...) 45828
▁orygina 45823
▁el 45815
gat 45813
▁Spe 45812
▁myślisz 45808
ţ 45793
▁Sport 45778
metr 45768
▁zdolność 45762
▁nieza 45761
▁Włoch 45753
the 45752
wala 45749
▁Prac 45740
szanie 45735
▁uciec 45732
▁udał 45727
▁znajdowały 45726
kwi 45719
▁litera 45713
▁ciszy 45712
▁rozwiązaniem 45704
▁błęki 45699
▁przemocy 45691
▁pracą 45690
▁biały 45662
cina 45659
▁Rzymie 45642
у 45641
▁przeko 45639
▁tworzenie 45638
dera 45630
▁Kobiety 45629
▁mieści 45623
▁wyróż 45622
▁odczy 45618
▁1962 45611
▁trwał 45608
▁poeta 45603
▁wysokich 45599
▁trzecim 45597
▁drewna 45592
▁poety 45590
▁matkę 45579
▁odległość 45575
▁wolny 45575
▁perspektywy 45574
▁powołania 45551
▁połą 45540
▁% 45539
▁złoty 45533
▁największym 45531
▁82 45529
▁Mont 45529
▁kościele 45527
wiły 45518
▁diagno 45511
▁skierowane 45511
▁zagad 45498
▁wymu 45482
Pi 45477
▁dokumentacji 45477
▁mechanizm 45477
fel 45476
▁Zakład 45474
▁oddać 45462
▁przeciwnie 45462
{ 45448
▁sędzia 45440
▁110 45432
▁1961 45415
▁600 45412
▁Para 45405
▁wskaźnik 45404
▁dzwo 45395
kło 45393
wające 45392
▁szczegóły 45389
▁zgłosił 45388
▁uznania 45375
▁istniejących 45369
▁dodała 45353
▁czytaniu 45347
▁Moskwie 45346
▁kół 45337
▁nale 45337
ownika 45328
▁długą 45322
bio 45321
▁minuty 45314
▁umy 45311
▁rzeź 45308
▁większego 45290
▁ryba 45285
▁druk 45282
▁88 45277
▁punktem 45275
▁obserwa 45274
д 45266
▁wolę 45266
stor 45264
▁obecnego 45264
▁poczuła 45264
jnie 45256
▁siedmiu 45256
▁wnioskodawców 45256
▁rzę 45246
▁starej 45246
▁Gdańsku 45245
▁złożone 45233
▁karę 45208
▁Jarosław 45182
▁Tour 45178
▁otwiera 45166
▁Nauki 45161
▁wpis 45156
▁wzruszył 45156
pka 45155
▁Prawdopodobnie 45153
▁zy 45152
lnością 45138
▁Dodatkowo 45123
▁rzuciła 45122
niętą 45119
rzyłem 45109
▁ocenę 45109
▁buty 45108
▁mieszkaniowych 45106
▁uzasadnienie 45097
▁fur 45096
▁Księ 45094
▁Mężczyzna 45087
▁pojawiają 45082
▁zginął 45078
▁blo 45074
▁ujrzał 45069
▁Służby 45059
▁określonej 45046
▁pośród 45046
▁Dotyczy 45039
zami 45034
▁niezbędnych 45029
▁uczynił 45017
▁organiz 45015
▁substancji 45013
▁grzy 45012
▁XI 45009
▁odpowiedniej 45006
▁1921 45004
▁dym 45002
с 45001
▁czytać 44995
powie 44990
▁etap 44983
ves 44966
▁wroga 44966
▁NFZ 44964
▁1958 44962
▁foto 44959
▁śpiew 44959
giel 44955
▁nych 44952
siu 44946
▁Książę 44945
▁Mikołaj 44942
▁podziękować 44935
▁(197 44932
AP 44931
▁znanych 44930
▁żołnierz 44929
▁Tę 44925
▁got 44922
▁prawną 44916
▁przebiega 44907
▁utworzenia 44903
▁kolejnym 44901
▁przychodów 44899
▁Zygmunt 44898
▁fach 44892
▁19. 44885
▁Cała 44885
▁istotnych 44883
▁dopuszcz 44881
▁dźwi 44879
▁jakość 44879
wiam 44871
▁podnosi 44871
▁Ewa 44848
▁szkody 44844
▁techniki 44842
▁kontro 44831
żając 44812
▁docho 44812
▁wez 44799
▁till 44798
gor 44793
▁uszy 44790
▁pobo 44789
▁techno 44789
▁Zwracam 44783
▁ministrów 44778
▁Wciąż 44773
▁stabi 44773
▁nadzorowanych 44761
▁Bas 44758
▁Hans 44758
▁kilkunastu 44747
▁poda 44740
▁wyglądało 44738
piła 44731
▁tworzą 44719
die 44713
▁palcem 44712
▁250 44704
dzka 44690
▁szanowni 44690
▁cześć 44685
▁XV 44684
ds 44678
▁xD 44674
wną 44670
▁słuchać 44667
▁wali 44657
kują 44656
gnęła 44653
stęp 44649
druk 44639
▁ogromną 44610
▁sytuacje 44607
▁zwro 44592
▁przyspie 44589
./ 44588
▁przekro 44572
▁wysokiej 44570
▁Mur 44564
czało 44558
pij 44555
▁wchodzą 44542
▁przeniósł 44535
▁otrzyma 44526
▁obda 44521
kaz 44517
▁szans 44516
▁wpad 44514
dziel 44504
▁powiada 44503
▁fu 44502
▁kolejowych 44500
▁szpitalu 44487
▁Nu 44484
▁bli 44477
▁opan 44476
▁miesiącach 44466
▁Lek 44465
▁obra 44465
▁Inspekcji 44455
ryk 44453
▁zapra 44452
szedł 44446
ujące 44444
yo 44444
▁ogromny 44435
▁działalnością 44433
▁dwo 44430
mir 44422
▁agencji 44416
▁stosować 44412
▁wybuchu 44410
źć 44406
▁samolot 44403
▁wstępie 44401
mii 44400
rys 44400
▁und 44384
▁189 44378
form 44377
▁potrafią 44376
▁Musiał 44370
▁pozostali 44370
chen 44367
▁właścicieli 44359
ø 44353
▁krą 44341
kowska 44339
▁wypadków 44337
▁sądy 44330
▁sygnał 44321
▁zapytania 44321
▁Pła 44316
▁napę 44310
▁Wiemy 44308
▁równowagi 44299
▁Bli 44297
gowych 44292
▁krze 44285
▁obrazy 44283
▁wykonać 44282
▁spodziewać 44264
danie 44258
mienie 44257
▁us 44256
▁Orderu 44236
▁ukazał 44236
▁próbę 44226
▁brze 44216
▁czysto 44210
mistrz 44204
▁Kir 44203
▁względzie 44201
▁Cat 44197
": 44190
▁Ul 44190
▁paliwa 44189
▁00 44185
▁Dem 44181
▁osobowych 44179
▁przyjęciu 44179
▁socjali 44173
▁Parlamentu 44172
▁lesie 44167
St 44163
▁Czyż 44163
▁wypu 44162
▁złoto 44159
▁trakt 44158
ciele 44149
▁walka 44134
▁budowie 44133
▁przedłu 44131
▁tr 44130
▁Ken 44126
▁radość 44126
▁zakupu 44123
▁Komitet 44119
▁prosił 44113
bem 44108
▁racjona 44105
▁wpół 44092
▁unijnych 44090
▁upad 44089
▁głupi 44087
uri 44075
▁zmianą 44075
▁odzna 44068
▁jechać 44063
pek 44059
▁umoc 44047
▁2:0 44044
▁największą 44035
▁rozporządzeniu 44035
▁komputer 44032
▁zakrę 44028
▁poprawkami 44023
▁130 44022
▁Francja 44001
iusz 43997
▁stwarza 43996
rol 43983
▁dotrzeć 43979
▁siedziała 43973
dyj 43972
▁chwil 43972
▁30. 43960
▁Mają 43960
onem 43954
▁Południowej 43945
tania 43932
ówki 43929
▁śmiał 43926
▁spu 43919
▁wysu 43903
▁prowadzących 43896
▁istnieć 43887
anci 43884
▁Spi 43883
▁szach 43876
▁zapas 43870
▁zamknięte 43867
▁Elżbieta 43865
▁cena 43860
AB 43857
▁kwot 43856
▁odwróciła 43849
fikacja 43848
wca 43848
▁alkoholu 43846
▁Kal 43844
▁fizycznej 43844
niez 43843
▁różnice 43836
▁przysługuje 43832
▁rodu 43832
zmem 43831
▁przebywa 43822
▁zapad 43816
sio 43813
▁fakty 43806
▁Krakowa 43803
▁komunika 43789
▁generalnego 43783
10. 43770
▁1936 43769
▁Czemu 43766
▁ką 43766
▁1957 43764
▁widzimy 43760
▁Obywatelskiej 43759
▁Dziewczyna 43755
▁dóbr 43748
▁negocjacji 43747
▁reform 43747
▁trwała 43742
ingu 43726
▁obiektu 43725
▁toteż 43722
żyło 43721
▁Bud 43721
▁1,5 43719
▁Istnieje 43703
▁słowami 43703
▁niepodległości 43683
▁szkolnictwa 43665
▁ukształ 43649
nau 43648
mus 43632
▁połączenie 43632
▁niewoli 43631
▁skórę 43622
rując 43600
ceniu 43593
lana 43586
▁stal 43586
▁codziennie 43578
▁eksport 43575
▁handlowych 43573
▁nigdzie 43569
▁planowane 43566
szedłem 43565
vy 43564
▁magi 43561
▁dnie 43560
▁wykonuje 43555
▁upadku 43535
▁wkład 43530
▁Mali 43523
yer 43515
▁właściciela 43513
▁1952 43510
▁zby 43498
▁komunikacji 43497
▁gnie 43489
▁określonym 43476
▁Kle 43455
▁wcześnie 43455
ÄTM 43454
▁myślałem 43447
▁ab 43446
▁skoń 43445
▁muzyka 43440
bert 43438
▁wynagrodzenie 43437
▁przewodni 43431
▁społeczną 43430
iel 43427
▁wzru 43420
luje 43412
rey 43412
▁Powiem 43408
▁chciałam 43391
knąć 43389
▁1937 43371
▁objęte 43370
▁Komisjo 43364
▁Sytuacja 43344
▁sekretarza 43339
▁Mora 43336
▁car 43333
▁średnich 43329
▁rozpa 43315
▁wymy 43315
▁cof 43313
▁białych 43311
▁oper 43303
▁dokonania 43296
sin 43286
lanie 43284
▁wyodręb 43280
▁matką 43279
▁aktorka 43278
▁ciepło 43272
▁mart 43272
▁dysponuje 43269
▁Van 43268
▁ogło 43265
działem 43263
▁zabiera 43261
▁służył 43260
So 43254
ory 43254
mierz 43252
▁statków 43240
▁zasięgu 43238
▁bazie 43234
▁partner 43232
▁wojsko 43232
rano 43227
▁rewolu 43224
bri 43218
▁87 43210
▁Świ 43209
▁rana 43196
▁Izbę 43189
▁setki 43189
▁reżyser 43183
▁przeprowadzenie 43182
▁Kre 43170
▁zwal 43165
▁przestęp 43159
▁wrażenia 43157
pal 43147
ding 43139
▁fundusz 43138
▁pomieszczenia 43135
▁porusza 43115
▁pokazuje 43114
▁Aż 43110
▁Szko 43108
▁̇ 43107
▁okrętów 43093
lizację 43091
dowi 43082
:// 43081
jechał 43081
▁stosowanie 43080
▁zgodności 43064
▁wiatru 43062
▁wyprowa 43056
▁młoda 43055
▁nagród 43052
▁Cza 43050
▁próbuje 43050
▁autom 43043
lega 43040
▁Prawie 43040
▁zachodzi 43039
▁mięśni 43035
▁korzysta 43032
sc 43031
▁strzał 43028
▁cios 43014
▁państwowego 43014
biony 43011
larz 43011
▁odpowiedniego 43010
▁podaje 43009
▁Smith 43008
▁widzieli 43005
niłem 43001
▁szczę 42998
sus 42995
rzami 42991
szliśmy 42990
dio 42986
▁84 42978
▁Ostatecznie 42975
▁Czu 42969
▁nakładów 42964
▁rów 42963
▁łączności 42951
▁reprezent 42937
▁muzeum 42911
▁170 42908
żka 42906
▁owe 42905
▁przeszło 42904
▁regulacje 42899
▁Kolej 42893
▁Właściwie 42884
54 42882
▁leżała 42882
ąt 42877
▁wykorzystanie 42869
▁1914 42862
▁portu 42862
ben 42854
▁otwo 42853
▁drobne 42846
▁ture 42844
▁Nowe 42841
▁wzor 42841
▁bronić 42837
▁upoważnienia 42836
▁umiera 42832
▁1959 42828
▁rzuca 42827
▁Królestwa 42816
nień 42811
▁stosowne 42789
▁zastanawiał 42789
▁patrzyła 42783
wiali 42779
vá 42769
anda 42767
kier 42754
▁idio 42740
miały 42737
▁trwają 42730
▁ważnym 42725
▁kosz 42722
▁trzymając 42716
▁1963 42709
▁żą 42707
▁obchodzi 42700
▁ludność 42698
▁wedle 42684
▁kontrol 42679
WA 42677
nanie 42677
rania 42675
▁owego 42675
▁przedsiębiorcy 42668
-6 42662
żała 42656
lany 42655
▁traktować 42650
ida 42647
▁klientów 42647
▁podniesienie 42639
▁zmieniła 42639
▁XIV 42633
▁główną 42626
▁zaakcep 42621
▁Kiedyś 42620
▁wyjechał 42617
▁spły 42603
▁zwrot 42593
▁chwycił 42590
▁jad 42583
▁rezultacie 42579
▁wymagań 42573
▁przeciwnych 42564
▁gęstość 42562
pała 42561
▁ram 42560
▁przekazu 42556
▁pośredni 42554
▁umowie 42553
▁Nagrody 42550
▁szyję 42550
▁dowodów 42547
▁Barbara 42544
▁kle 42542
▁zba 42528
▁Współ 42520
wałam 42518
▁86 42518
▁ucz 42518
▁dookoła 42515
▁14, 42507
nim 42502
в 42501
▁zbud 42498
▁oddziaływania 42492
IT 42491
czer 42487
▁rozp 42485
ujący 42473
▁bezrobotnych 42471
▁faktem 42470
▁czci 42469
▁Szy 42467
▁podlegają 42449
▁1934 42448
▁naród 42440
▁pracowni 42439
▁cia 42438
▁działacz 42437
▁Tan 42418
AD 42413
dawców 42412
▁zapom 42406
▁Sił 42399
miesz 42392
gry 42382
▁diecezji 42348
▁chłopcy 42343
▁sprzyja 42343
krotnie 42342
▁rozstrzyg 42330
czami 42326
▁wyjął 42322
▁pracodawców 42321
▁linia 42317
▁powołany 42311
▁dostaw 42305
▁opiekę 42300
▁boj 42292
▁obiekty 42284
szk 42278
▁okaże 42276
▁nastąpił 42274
▁owo 42273
▁podanie 42268
wość 42261
▁podniosła 42259
▁Austrii 42258
▁stłu 42252
muję 42249
▁prę 42247
▁przeło 42244
▁bło 42242
▁domem 42241
▁Drugie 42238
▁ziemią 42231
gała 42225
▁klasie 42221
▁przerzu 42215
▁szczególnym 42211
ES 42210
▁Pia 42206
▁dostępne 42190
▁gli 42188
▁szerokie 42188
mała 42182
▁zatrudnia 42172
lacje 42170
▁dowiedział 42154
▁Sprzeciwu 42153
▁wzrasta 42153
▁pracodawcy 42149
▁har 42140
lok 42137
▁rewolucji 42137
▁Club 42129
▁synów 42129
▁ulgi 42128
kiewicza 42123
▁jakże 42114
▁posiadania 42113
▁ubezpieczeni 42108
▁juniorów 42106
▁egzeku 42099
▁naukowe 42095
▁wychowaw 42095
owce 42094
▁ste 42084
▁opu 42082
▁cyklu 42079
▁Włoszech 42077
▁podmiotu 42075
▁wymagania 42071
▁Rzymu 42064
▁Punkty 42056
▁bronią 42056
rea 42054
▁zjawisk 42042
▁ucha 42033
▁podpis 42032
▁Londynu 42031
▁pamię 42027
▁plecach 42027
▁prawdziwy 42022
▁niedaleko 42010
zując 42009
czko 41997
JPG 41989
▁uzasad 41984
torze 41983
▁Jim 41981
▁wierz 41980
lają 41972
nęłam 41970
▁przygotowane 41965
▁planety 41950
▁wid 41938
▁filmie 41925
kają 41924
▁modernizacji 41921
▁skrzydła 41918
▁krzesła 41915
pą 41908
▁katoli 41903
▁Zamie 41895
▁Afryki 41882
▁zabój 41866
▁die 41855
PS 41847
▁4: 41844
▁przypada 41843
▁skrom 41843
▁ostatnią 41840
▁działają 41836
▁trzecia 41836
▁powiatów 41835
nny 41813
▁rany 41813
▁doszedł 41807
▁79 41804
kowania 41803
▁adresem 41800
▁zgadza 41797
▁bał 41791
▁pogrą 41788
▁styl 41786
▁ście 41786
▁Najwyższego 41785
▁pojazdu 41785
▁Nowej 41772
▁miło 41770
minu 41743
▁sena 41741
▁nagrodę 41735
▁instrumenty 41729
lewski 41721
wości 41721
szów 41720
▁Wniosek 41719
▁prędzej 41707
▁Oj 41704
▁usprawiedli 41700
▁wracać 41696
▁grafi 41694
▁długich 41683
menta 41671
▁Głównego 41661
▁efekcie 41650
▁określonego 41649
▁trwania 41649
▁poro 41644
▁rodzinę 41643
▁silnik 41640
▁kryzysu 41624
gene 41618
sząc 41616
▁Austria 41615
▁chcecie 41615
▁głu 41612
▁zacze 41607
▁Sym 41603
▁rangi 41602
▁emisji 41586
▁Anto 41583
▁1930 41577
▁przeciwnika 41576
wianie 41570
.” 41568
▁wyba 41564
▁kontrola 41563
▁owi 41562
▁zga 41555
▁Zamiast 41548
▁przystos 41536
▁Emi 41533
▁kontakty 41532
▁tło 41529
niało 41525
▁zobaczy 41515
▁Usta 41512
▁niemniej 41512
▁ciemne 41497
56 41492
▁dali 41489
▁wyru 41485
▁przemawia 41477
▁Kobieta 41476
▁Sła 41472
▁konkurs 41472
gając 41466
▁sędziego 41464
▁obiad 41456
▁Została 41445
tność 41440
▁stwierdzenia 41438
ath 41431
02 41423
▁obiekt 41415
▁odejść 41409
działa 41408
▁NATO 41408
ury 41387
▁XIII 41387
▁przeszko 41387
▁etatów 41384
▁oficjalnie 41380
▁oszu 41373
zny 41365
▁żal 41364
▁ciałem 41355
▁specjalnego 41342
▁Premier 41339
mian 41338
grafia 41337
▁mienia 41337
▁University 41311
▁opisu 41303
▁podpisał 41294
▁gad 41290
▁klubie 41290
▁mleka 41289
▁dziewczynę 41285
▁krwią 41284
▁widzisz 41281
▁spe 41278
con 41275
▁71 41272
prawdopodobniej 41256
tch 41252
▁wzór 41247
anom 41245
▁powtó 41244
ř 41241
▁1924 41238
▁dworze 41238
mują 41237
-8 41233
ias 41220
▁Kraj 41219
▁dokonuje 41215
▁poglądy 41209
▁Air 41206
▁przeszła 41206
▁skupi 41199
▁roszczeń 41197
▁świadczenie 41193
▁kandydat 41187
▁nazwać 41156
▁neuro 41156
▁rozstrzygnięcia 41152
▁wizyty 41146
▁PRL 41142
▁pru 41142
▁wprowadzone 41134
▁żyją 41134
▁rozło 41132
żki 41119
▁Simon 41114
▁Anny 41111
chodzi 41107
▁zała 41099
▁Ok 41095
▁zajmują 41091
▁Japonii 41082
▁posze 41077
▁lokali 41076
▁Dane 41071
▁zadowolony 41068
▁tylu 41063
▁Wol 41058
▁zbi 41057
rd 41047
▁starszych 41045
▁Mężczyźni 41038
▁długość 41030
▁Dal 41028
▁strat 41026
▁linie 41024
▁oświadczenie 41024
▁Order 41021
▁zapro 41021
kały 41015
dnik 41010
▁metra 41009
▁wino 41008
▁Leon 40999
▁liści 40990
ctwem 40989
cznika 40986
▁nastąpiła 40986
dziłam 40968
sten 40958
linie 40943
▁dofinansowania 40932
jej 40926
▁przedmiotu 40923
▁niemieckie 40922
▁zanie 40920
▁przeciwieństwie 40918
▁Wraz 40911
▁poprzedni 40910
▁zauważ 40907
▁kontaktów 40900
▁mieszkanie 40898
▁obronie 40894
▁1917 40889
▁dostrzec 40884
wkę 40882
▁łagodnie 40882
▁zaciąg 40881
▁liczyła 40879
▁US 40868
▁pełnego 40867
▁przeciwnym 40866
sse 40864
niając 40858
▁mediów 40854
▁188 40853
▁eksportu 40852
▁Północnej 40850
▁most 40847
▁utrudnia 40843
mią 40835
▁Kul 40831
▁pozostanie 40829
▁Michała 40828
▁uniemożli 40827
▁zasi 40813
▁Mecze 40804
▁wątpliwość 40803
▁podjęte 40800
▁definicji 40788
▁prosi 40787
▁4) 40785
▁wykorzysty 40776
towana 40771
▁Telewizji 40769
▁Stał 40761
▁reszty 40758
▁księżyc 40752
▁Chcesz 40748
▁nieod 40745
turze 40739
▁powinienem 40736
▁nisko 40734
▁wierzę 40730
shi 40722
ciami 40720
▁pałac 40716
dzoną 40715
▁Mało 40713
▁(0 40705
Tak 40700
▁teat 40693
▁wykonane 40691
▁ocenić 40680
▁rzymskokatoli 40679
▁pożar 40678
use 40676
▁mno 40676
cle 40675
▁ojcu 40672
▁Open 40658
▁poprawę 40657
▁Długo 40656
57 40653
dyn 40650
rena 40647
mał 40646
byt 40644
▁wybiera 40635
heim 40633
ujemy 40626
▁uwzględni 40621
▁Każda 40618
szonej 40617
▁Lam 40611
▁Daj 40608
▁powtarza 40604
▁przeby 40603
▁bezrobocia 40602
▁jakichkolwiek 40601
▁dochodu 40594
▁interwencji 40589
IC 40588
▁) 40582
niane 40568
▁zdarzyło 40565
▁banki 40553
▁odezwała 40547
▁objętych 40543
▁szczycie 40532
▁powiedz 40531
▁Ilu 40529
▁pewności 40524
▁popra 40517
Je 40500
▁śniegu 40500
▁działał 40499
▁uczestniczył 40493
▁wystąpić 40482
▁wygląd 40478
▁fotelu 40477
▁podobnego 40476
▁Pozna 40464
▁wejściu 40461
▁Poz 40455
▁sprawozdawcy 40451
hr 40448
▁wyposa 40447
▁zagadnień 40447
▁kosztem 40439
▁załat 40438
▁kredy 40436
▁poważ 40435
▁Plat 40433
▁odby 40431
▁urzędy 40424
▁ogląda 40423
▁wskazując 40422
▁brytyjski 40419
owem 40407
▁ogólnie 40407
▁Doktor 40392
▁katolicki 40391
▁Pad 40390
biła 40387
▁odcinek 40384
▁radi 40383
up 40369
jnej 40365
▁intensyw 40355
▁wstęp 40354
ub 40352
▁kop 40343
wój 40340
▁Prix 40338
styki 40330
atycznych 40323
▁Zało 40323
dae 40315
▁Zjednoczone 40310
▁Wydawało 40309
tat 40306
▁Fla 40300
▁wybud 40300
var 40299
rzałem 40296
wnie 40296
ciach 40290
▁chodzić 40290
▁rośnie 40289
03 40286
▁robotników 40286
▁hipote 40285
▁słowach 40278
▁ulicę 40274
▁rozmowa 40250
dowa 40248
▁sposoby 40247
▁obserw 40244
▁władza 40241
rki 40238
▁Bran 40237
ńcy 40236
▁Dru 40230
▁zostawić 40226
logicznego 40216
▁umarł 40215
▁zdarza 40215
nel 40213
óz 40210
▁decyzją 40208
czyni 40206
rował 40206
▁Główny 40206
▁zgło 40205
szyły 40202
▁powtarz 40191
▁przera 40190
▁Szwecji 40180
▁spali 40177
▁Gdybym 40167
▁wewnętrzne 40166
▁Szwe 40161
▁przedło 40161
▁podejmowania 40158
▁kr 40154
logi 40148
▁gałęzi 40142
▁KS 40140
▁nacisk 40140
▁walk 40136
▁opuścić 40121
▁wewnętrznej 40120
▁1922 40116
▁chłopców 40100
▁stowarzyszenia 40100
▁Bydgoszczy 40097
▁ROZDZIAŁ 40097
nad 40090
ric 40086
▁obję 40086
▁Mistrz 40082
▁Łódź 40082
▁wątpienia 40076
▁zgłoszone 40075
▁wolna 40074
▁prowadzona 40069
▁wyprawy 40060
▁przekazał 40052
▁inspektora 40048
▁wojną 40026
▁albowiem 40024
▁Oba 40018
▁Wspom 40018
▁przecie 40005
▁brązowy 40001
▁prywaty 39999
chanie 39995
owny 39994
▁spotka 39992
Czy 39988
▁wspomnienia 39987
czącym 39986
▁opada 39981
▁postanowiła 39980
▁zwróciła 39977
wiały 39975
dują 39965
▁opisy 39956
dt 39955
▁Cer 39945
▁Tadeusza 39936
▁słyszeć 39930
▁Skrzy 39929
laty 39928
▁Lee 39927
▁wytwór 39927
▁Bożej 39925
szczał 39924
▁Psych 39923
▁wspólnej 39923
▁konwencji 39921
▁Ligi 39919
▁odpowiedzialny 39918
▁długim 39916
▁trwało 39914
▁posłom 39912
▁trudu 39905
▁dodatek 39898
gue 39890
▁1933 39886
▁drogach 39886
conego 39875
▁bły 39874
▁pójdzie 39874
▁stanowiła 39873
▁stają 39862
▁unik 39858
dent 39848
▁wiecie 39844
▁Len 39843
▁Tal 39843
▁wsta 39839
tacją 39835
▁kolejnego 39831
▁rozmawia 39831
▁stanowiło 39829
▁napły 39818
▁uzależ 39818
▁spoj 39810
szczone 39805
stry 39802
cyj 39799
lację 39799
▁jemu 39798
▁Zarząd 39789
wce 39777
nist 39775
OT 39772
▁twoich 39770
inte 39769
▁przekona 39768
piał 39743
piec 39741
▁Dobra 39739
▁naraz 39739
bienia 39731
▁kłam 39730
rzej 39729
▁telekomunika 39727
▁kolejno 39724
▁meta 39716
▁rosyjski 39706
▁kontra 39704
▁morzu 39704
▁wyższego 39704
▁spowodowało 39698
▁obcy 39697
▁różnic 39695
czów 39690
szny 39689
▁jakiekolwiek 39680
języ 39674
▁zatrudnienie 39673
▁ny 39670
▁płyty 39670
▁świetnie 39670
▁ponosi 39664
eld 39663
kty 39660
ori 39646
▁położone 39644
▁Strze 39640
▁dem 39638
▁otrzymali 39637
miała 39635
▁stanowił 39633
▁Zdaje 39631
▁interesuje 39631
▁zamieszkiwało 39628
▁palców 39618
▁niżej 39613
tko 39603
▁id 39600
59 39597
bek 39596
▁papieża 39595
▁Informuję 39592
▁wojewodów 39587
▁Pau 39582
▁rodzaje 39582
▁patrio 39579
stać 39576
myśl 39573
▁jedyna 39569
▁wio 39569
▁uzyskała 39558
ón 39557
▁realizować 39550
▁ciał 39546
▁Mieczysław 39532
▁próbując 39532
▁posa 39530
▁techniczne 39526
▁dochodowym 39525
▁własnością 39520
▁ucho 39518
arka 39517
▁kręgu 39517
▁uzasadnione 39515
▁dokład 39504
▁wyrazu 39502
▁wilgot 39492
▁owej 39486
▁wybory 39485
▁Tem 39483
▁przypominam 39478
hor 39474
▁Jar 39474
▁gdybyśmy 39473
ród 39464
▁przestępstw 39463
▁nade 39458
▁morder 39445
towanie 39443
▁fak 39441
ięk 39439
UR 39434
▁hrabia 39430
▁elektrycznej 39424
▁próba 39424
▁1926 39422
▁ow 39418
wio 39411
▁pozytywne 39406
▁panowania 39401
▁reali 39401
brze 39396
▁zu 39396
▁polecenie 39395
▁140 39394
▁chy 39389
▁1932 39384
▁finał 39383
▁Wprawdzie 39379
▁zaj 39374
▁→ 39371
▁radzie 39367
aniach 39364
▁spowodować 39361
▁Jacka 39360
mentów 39359
▁siedząc 39358
▁119 39357
▁realizowanych 39357
▁włoski 39357
▁lidze 39354
▁Biorąc 39351
▁sięgnął 39350
▁Rzecz 39336
fikacji 39335
52 39331
▁zada 39330
świa 39328
▁nur 39324
▁drogowego 39322
▁standardów 39316
▁bran 39313
▁pewny 39312
łania 39309
▁pozostała 39307
▁uci 39306
▁wydawać 39303
▁poprosił 39291
▁wypadkach 39277
▁ekonomicznych 39274
▁zasy 39265
▁publicznie 39261
▁założył 39259
▁pułkownik 39254
ira 39252
▁porę 39252
▁czerwone 39248
woj 39245
▁seria 39244
▁tamten 39236
▁skraj 39232
▁szczególne 39228
▁towarzystwa 39222
żnej 39221
▁Wygląda 39218
▁wg 39218
gali 39217
▁bramy 39216
▁Prowa 39214
ymi 39213
▁wypa 39211
▁społeczny 39206
▁zaplan 39204
▁budowlanych 39203
53 39201
▁Aha 39199
▁gorąco 39194
▁perspektywie 39193
Au 39191
▁osiągnął 39190
▁Nagroda 39187
▁Jane 39186
▁skier 39186
ë 39185
▁skon 39182
▁będziecie 39178
▁zarejestr 39177
▁konstruk 39176
▁1955 39173
▁moglibyśmy 39171
▁niedługo 39170
▁wykształ 39169
▁Zi 39168
zor 39167
-- 39163
▁wojewoda 39160
▁pomoże 39152
▁zajmować 39147
▁przewidziane 39143
▁pieśni 39134
mak 39127
▁kolejnej 39126
▁święta 39105
▁pisać 39102
fon 39101
▁szczególnych 39086
▁oferty 39082
stymi 39081
▁wygrał 39081
▁Grupy 39080
▁połączone 39067
kształ 39064
▁Szczególnie 39063
▁powstało 39041
not 39033
jm 39032
ujących 39031
▁generalnie 39031
▁wiel 39027
▁ogar 39026
▁serialu 39019
▁pomaga 39009
▁zimno 39006
▁1951 39005
▁89 38999
niczej 38998
▁ryn 38998
▁rehabilitacji 38994
▁Ludwik 38990
▁intelektu 38988
kaj 38984
rzeć 38983
▁przesta 38982
▁sport 38977
▁szepnęła 38977
chro 38969
▁napisane 38969
▁Syn 38965
▁przykro 38965
▁słuszne 38964
ery 38962
▁państwach 38960
▁prócz 38950
▁postawi 38942
▁sformułowanie 38942
▁figu 38940
▁opublik 38939
gły 38937
▁gatunki 38931
▁Powo 38922
▁widoczne 38921
szczony 38918
▁swymi 38912
▁linię 38907
▁niewin 38906
▁Kapitan 38899
▁ochrona 38886
▁prosta 38883
▁wystąpieniu 38882
▁Gdańsk 38881
czkami 38878
▁emeryturę 38877
▁Joanna 38866
▁tamtego 38866
▁dą 38861
▁Nas 38846
▁komuś 38844
▁umożli 38842
▁tań 38840
▁regulamin 38818
▁prezyden 38811
▁tył 38805
▁kłopotów 38803
staw 38793
▁pacjent 38792
▁instrumentów 38789
rowała 38782
▁społeczna 38778
▁text 38774
▁kła 38770
▁rozmowie 38760
▁Wska 38750
▁spostrze 38750
▁Nadal 38745
▁Ameryce 38740
▁przychy 38738
▁wzięło 38727
▁jed 38716
▁Grani 38711
▁zobaczyła 38701
▁kierował 38700
▁zasło 38698
▁Szybko 38692
▁kam 38690
lko 38686
▁podat 38685
jazd 38681
▁bram 38678
▁pedagogi 38676
▁spój 38676
▁wszelką 38675
wicy 38669
▁śladu 38668
gór 38658
bina 38650
▁okolicach 38641
▁malu 38638
▁połowa 38638
▁okru 38636
▁wiod 38625
▁92 38620
▁absolu 38620
▁myślach 38618
▁podej 38618
▁nowelizacja 38611
żo 38610
GO 38602
▁pracują 38601
▁światem 38601
▁czekając 38596
▁sędzi 38592
▁największy 38585
▁wspomniał 38585
▁psy 38565
▁uzyskanie 38564
nowi 38563
▁rogu 38558
▁otworzyć 38556
▁Kara 38555
▁jaj 38555
▁Flo 38551
▁poszukiwania 38548
▁pełno 38543
▁doskona 38536
▁publikacji 38535
▁ocho 38529
cej 38518
▁baz 38518
▁Stanowi 38516
▁popar 38516
▁wybrać 38513
▁głup 38510
▁okrętu 38506
▁wzię 38505
ě 38504
bud 38503
wiz 38494
▁lubię 38492
▁wyspie 38492
▁sfery 38491
▁tegoż 38491
▁legislacyjnych 38489
▁Narodów 38482
▁Finał 38460
chach 38457
▁Ny 38456
▁History 38453
▁forum 38451
Dzwonek 38450
▁Cas 38450
▁rozdziale 38449
▁1953 38447
▁Węgier 38432
▁właścicielem 38431
działy 38427
▁argument 38426
zyj 38425
▁wyrzą 38423
ńczyk 38419
▁przeja 38413
▁przekazy 38407
▁upadłości 38406
▁ter 38402
dora 38400
▁europejskiej 38399
▁rodzajów 38398
▁podstawowym 38397
▁każdemu 38394
org 38387
wani 38387
▁chory 38383
▁tran 38382
▁rolnicy 38377
▁sprze 38373
▁starym 38371
cku 38368
▁dany 38360
▁zdecyd 38358
pp 38353
▁przełomie 38352
.... 38351
▁ogólnych 38346
▁zgoda 38344
▁Prokuratury 38343
Ni 38338
▁Ala 38337
▁twojego 38334
▁pracownik 38333
▁przyniósł 38329
▁gigan 38322
▁PiS 38320
▁twarze 38320
▁zezwolenia 38320
cają 38318
▁struktur 38318
▁stacjon 38314
rzono 38312
▁roześmiał 38312
szonego 38310
▁książce 38309
▁samolotów 38305
liwością 38297
▁nada 38297
PR 38282
pio 38279
▁lekar 38278
▁pozwolę 38278
▁Records 38272
bez 38263
jewski 38256
▁ogo 38254
▁tygodnia 38243
styka 38242
▁godzinach 38233
▁Maj 38231
▁analiza 38230
▁przypom 38217
▁będące 38216
▁papież 38215
▁usu 38210
58 38207
▁man 38187
▁właściwych 38187
amo 38185
▁Fal 38181
▁Wskazana 38181
▁instytucja 38175
piąc 38171
▁pochodzą 38168
▁Lwowie 38162
▁daty 38157
▁powołanie 38157
▁Czasem 38153
▁kontaktu 38147
▁czarno 38146
▁lodow 38146
▁zabił 38139
kot 38137
▁płacić 38133
▁osobami 38128
▁Niem 38115
▁1935 38102
letniego 38101
dak 38099
rzymy 38096
szemu 38095
▁rozpatrywania 38094
pada 38083
▁użyte 38083
▁remont 38078
▁Berlinie 38073
▁(14 38072
▁uchwałę 38071
▁wojewody 38068
low 38066
▁rozpatrzenie 38063
▁kano 38058
▁kontynu 38055
▁czarnych 38054
▁zapomina 38051
ceniem 38050
robi 38043
gowe 38041
▁starając 38038
▁leczenie 38034
▁kolejną 38032
▁współpraca 38023
▁szczególną 38021
▁przekazanie 38019
▁możliwie 38013
▁1929 38010
▁powiedzenia 38010
▁poznał 38010
▁cieniu 38009
▁dorosłych 38009
▁aczkolwiek 38003
▁zapomnieć 38000
▁psychologi 37999
▁czterdzieści 37998
▁Gold 37997
▁przywiąz 37997
osob 37990
▁deszczu 37987
▁miastem 37987
▁krawędzi 37984
din 37982
▁podejrz 37982
▁kamieni 37975
cis 37973
▁ramionach 37970
▁otworzyła 37968
▁zwiększa 37968
▁zamierzał 37958
▁omi 37954
▁mężczyznę 37941
▁słuchawkę 37931
▁Twarz 37927
▁odro 37927
▁pobu 37923
▁proponujemy 37920
▁traci 37908
lich 37906
szła 37905
kowane 37904
л 37903
▁tamtych 37901
liby 37896
▁dogo 37891
▁zmieniło 37891
▁papieru 37880
▁robót 37874
▁przyglądał 37868
▁Bad 37867
▁15, 37866
żną 37861
▁bogów 37856
▁wzgórza 37855
▁konkursu 37852
▁różnymi 37852
ściem 37843
deł 37841
▁81 37840
źnie 37839
▁skały 37839
▁oporu 37838
ione 37831
▁wyższym 37823
▁pokazał 37820
▁fron 37819
▁nauczyć 37814
▁biznes 37802
▁sposobów 37796
▁tworzyć 37794
▁odmien 37786
▁pochylił 37785
▁stwierdzam 37781
▁zasadami 37780
▁zwany 37780
▁złożony 37779
▁objęcia 37776
▁Najbardziej 37774
▁podobno 37774
▁99 37773
▁ME 37772
▁Władysława 37769
▁upoważ 37769
▁lepszy 37762
▁ubezpie 37761
▁wykład 37759
▁zajm 37742
łanie 37741
▁Musisz 37735
▁Granicznej 37734
▁sceny 37729
wiąz 37726
▁zdarzeń 37726
▁królem 37722
mien 37721
▁posłem 37721
tele 37720
iss 37710
▁najem 37700
▁dal 37695
▁cukru 37693
▁wzmoc 37691
▁uregulowania 37679
▁utworzenie 37673
▁zwycięstwa 37673
▁pozycja 37670
▁zdobyła 37668
▁recep 37659
▁bro 37657
▁zo 37657
▁komisję 37630
▁sądowych 37630
▁piękny 37627
▁efektywności 37621
▁płaszcz 37621
▁odpowiednim 37615
▁błę 37610
▁powszechnego 37599
▁płaci 37594
▁Jasne 37582
▁zastos 37576
▁Wier 37574
tkę 37557
▁wydała 37557
▁wybrał 37556
dzkich 37553
▁ryby 37553
▁Przepisy 37550
▁Py 37550
▁interesie 37550
▁kory 37550
som 37547
▁zapłacić 37546
▁wymiar 37540
▁Tr 37536
▁licz 37534
▁Black 37531
tycz 37528
▁uści 37524
▁dwoje 37519
tywa 37508
▁procesy 37504
▁MŚ 37500
▁Sku 37500
▁odrzuceniem 37493
▁postawić 37493
▁strasznie 37484
▁wykonywanie 37482
▁podda 37478
▁Świa 37478
▁gotowa 37477
▁morskiej 37474
▁emocji 37466
krzy 37464
▁formuł 37464
▁zespo 37459
▁obozie 37453
▁rozkazy 37452
▁naz 37448
▁złą 37444
▁Den 37442
▁wygo 37433
▁obszer 37419
dzam 37414
▁epoki 37413
▁łaci 37412
▁wrze 37408
▁zbiór 37406
▁wysłu 37402
▁stanęła 37398
▁wynikają 37398
▁statu 37393
piera 37387
▁Rodziny 37387
wamy 37379
skę 37377
▁rozbud 37376
▁chro 37374
dl 37369
▁Pamiętam 37364
leb 37362
▁produkty 37355
▁epi 37352
▁postawy 37350
▁przeprowadz 37349
▁anali 37343
▁Przygot 37339
▁kwestią 37338
▁Mikołaja 37330
▁odbie 37327
owską 37320
wid 37315
mos 37305
▁dzieł 37305
▁Team 37297
▁Jakże 37289
▁produkcja 37286
▁Dr 37284
atyczny 37277
▁klę 37267
▁usiłował 37266
kor 37264
▁regul 37264
▁wolne 37264
▁minimum 37262
▁odbud 37256
▁kilkadziesiąt 37251
niejszej 37246
▁mody 37246
lip 37242
▁jedyne 37238
▁pob 37236
▁czując 37235
▁Mówił 37232
▁posiadał 37229
▁powoły 37228
▁niebezpieczne 37225
▁znacznej 37220
▁Paryża 37218
▁zamieszkania 37218
▁deleg 37208
▁uroczy 37203
▁wer 37203
▁zawarta 37202
▁musiałem 37200
▁boi 37197
▁użyć 37197
▁energię 37194
▁98 37192
coną 37190
▁Tele 37188
▁umiał 37182
▁Nasze 37181
▁amerykańskich 37180
▁spada 37173
▁chleba 37172
▁jo 37171
▁Przyby 37168
▁nadaw 37166
▁decyduje 37161
▁dynami 37157
▁kilkakrotnie 37154
▁96 37143
▁odbędzie 37140
▁Czech 37139
lecia 37134
szyli 37133
nięto 37128
▁mogłam 37119
▁16, 37093
▁ciepła 37092
vie 37090
oli 37088
▁działaniach 37088
▁odw 37086
▁Angeles 37077
▁świętego 37068
▁odpowie 37063
▁Wystarczy 37060
▁Aleksand 37054
▁dowolnym 37054
▁Ukrainie 37051
▁Publi 37048
▁przygo 37038
towała 37036
▁pragnął 37028
▁SLD 37026
▁wiedza 37022
▁1925 37020
▁stacja 37017
▁dając 37012
▁rzecznika 37012
▁dłuższy 37010
▁przebywał 37010
▁organem 37006
▁gimnazjum 37000
▁pułk 37000
▁przyszły 36996
jew 36990
▁Stany 36990
▁przedsięwzięć 36990
▁ewentualne 36989
▁masa 36988
▁formu 36986
▁karierze 36983
м 36969
▁22. 36968
szyn 36966
▁produkcję 36966
▁referendum 36959
▁pięcio 36957
▁demokra 36956
▁Rich 36954
▁Krzysztofa 36950
lanych 36946
▁wyraził 36946
▁trą 36944
▁zatrzym 36937
▁Ele 36928
▁podporządk 36927
▁urodził 36925
▁Góra 36922
▁dokona 36917
▁szansa 36910
▁Zad 36905
▁odpowiadać 36903
▁popraw 36897
▁podejm 36894
▁pogrzeb 36893
▁poparcia 36893
▁odnaleźć 36889
▁człowiekowi 36885
▁wysoka 36885
ili 36874
jki 36871
▁swobodnie 36871
▁polityczną 36870
reg 36867
▁twier 36865
▁zatrudni 36863
▁seksu 36861
▁Ap 36856
▁zorganiz 36849
▁mocniej 36848
▁Piechoty 36847
▁KC 36842
▁Stara 36820
torium 36818
▁obowiązkiem 36816
wina 36814
▁Ruch 36814
▁Mę 36809
▁Artur 36808
ńsko 36800
▁trwały 36800
▁Mały 36783
bka 36779
▁pozwalają 36779
▁pomo 36778
▁strukturze 36777
▁zbrojnych 36774
▁spędził 36769
ńczyków 36761
▁wypowie 36761
▁zrobiło 36760
▁finansowym 36759
▁międzynarodowe 36757
13, 36754
▁Wieś 36744
jski 36739
▁Gmina 36731
▁winien 36726
▁błędów 36722
▁ośmiu 36722
▁dawnej 36719
▁Prezydent 36711
▁zastąpić 36710
▁dziedziny 36705
dziej 36697
mes 36695
è 36679
▁wasze 36676
▁demokracji 36675
▁skierowany 36674
▁naturalnie 36668
▁Sojuszu 36658
ął 36651
cego 36648
▁rządy 36648
▁50% 36644
▁czarną 36643
▁okaz 36641
▁rozpocząć 36639
mery 36638
▁Opera 36638
▁gospodar 36638
uż 36630
sson 36625
▁weso 36622
▁lasów 36616
▁rozdziału 36615
▁zachwy 36613
▁kwiaty 36609
▁przeto 36607
▁wchodząc 36606
▁krzyknęła 36605
▁faktów 36588
▁partyj 36588
▁wprowadził 36583
vić 36581
▁zagra 36579
liwym 36577
waż 36576
▁dosłownie 36568
▁kieruje 36566
51 36560
▁morskich 36542
▁wymogów 36542
▁Świat 36541
▁mieszkał 36539
▁Kolejna 36537
▁Parlamentarny 36530
▁oświad 36523
▁publicznym 36523
▁narzędzia 36521
bas 36519
▁podjęła 36514
▁import 36498
▁Kier 36483
▁artykuły 36482
zur 36478
▁raj 36478
▁przecię 36467
▁Kri 36463
▁wykonywać 36460
▁padł 36456
▁runda 36453
dnio 36452
▁Szkoda 36448
sała 36447
▁zbudowany 36444
▁bynajmniej 36443
▁spełni 36433
łyby 36431
fek 36429
▁biur 36424
dzkim 36423
▁Prawda 36423
▁oznaczało 36420
▁Stru 36413
▁Ara 36412
▁Pewnego 36412
▁nadaje 36410
▁przyjść 36410
▁kwa 36408
▁znalazłem 36406
▁okolicznościach 36404
▁Pozostałe 36403
skał 36400
▁zmianami 36398
rka 36396
▁branży 36396
▁Samorządu 36395
▁przyjęto 36394
▁niezmiernie 36390
▁trak 36387
▁sprawozdawcę 36379
▁nagro 36378
▁zorien 36374
▁odwagi 36373
nowo 36370
wiec 36365
▁wypły 36364
▁hor 36354
dawcy 36351
▁Gali 36351
▁Przeciw 36348
▁okry 36347
▁Col 36342
dowym 36341
▁propon 36338
▁Szkoła 36334
▁wyzwo 36328
tin 36324
ówka 36320
▁pokolenia 36319
▁dzierża 36315
▁dokoła 36311
▁tedy 36306
▁pada 36296
tyz 36291
▁przewodniczącym 36289
▁dawał 36286
▁konflikt 36286
▁spóź 36282
▁wygło 36275
▁sma 36273
▁dziw 36271
▁raportu 36265
▁wyobraźni 36260
-7 36256
▁Pr 36256
▁mecz 36255
▁polityczny 36255
▁gwarancji 36250
▁przyjaciele 36248
▁Prezes 36242
▁facto 36242
dzali 36240
▁lotu 36238
▁mecze 36230
▁państwem 36227
▁zakończyć 36227
▁przestra 36217
▁1927 36216
▁poglądów 36212
▁idą 36209
▁Mike 36204
nowski 36192
▁słuchał 36186
▁podwo 36183
▁gimna 36176
▁igrzysk 36175
▁wydawania 36174
▁Conan 36173
▁poczy 36172
▁zasadą 36163
▁zrozumie 36162
▁Mistrzostw 36160
▁przyto 36159
▁nosa 36155
▁podatkowego 36155
▁niewielki 36154
▁cesar 36153
▁lęk 36143
▁kierownik 36134
dka 36117
▁Obaj 36115
▁mandat 36102
▁facet 36097
▁gier 36095
ankę 36089
syw 36088
cker 36083
▁pozostają 36081
▁Senacie 36078
▁zaprezent 36078
▁orien 36069
▁Droga 36062
▁Radio 36051
▁autorem 36040
▁94 36035
▁szerokim 36029
▁skraju 36025
▁ostry 36020
▁cztero 36018
▁uzgodni 36015
tyzm 36014
▁udaje 36012
▁odsło 36010
pit 36006
spek 35993
▁uśmiechu 35988
„ 35985
tnymi 35981
!) 35974
▁Mał 35967
▁sprawozdawca 35965
▁wymiarze 35960
▁Juan 35958
znaw 35952
▁Szcze 35949
▁komp 35948
iło 35947
▁pomyśleć 35947
▁Ode 35943
▁Ly 35933
IV 35932
▁jeść 35931
lizowane 35924
▁uważać 35923
▁ogród 35920
pres 35917
▁legi 35907
▁nieustannie 35906
Pol 35902
▁qu 35895
▁indy 35893
▁przedmioty 35893
gio 35887
▁wszakże 35881
▁angielski 35877
ralna 35876
▁dostatecznie 35874
▁rzeką 35871
owatych 35868
▁Stef 35867
▁schwy 35856
▁obrady 35853
▁obło 35851
wet 35850
▁Olimpijskich 35850
▁sformułowania 35846
▁oznak 35839
▁kadr 35838
rop 35837
▁twórczości 35836
▁Kad 35834
▁ruchy 35823
▁prote 35819
▁dużego 35817
▁nieroz 35817
stką 35816
▁dwór 35816
▁Dwie 35815
▁wstrzymujących 35814
▁wyprac 35812
lili 35803
▁zaangaż 35802
▁pięknie 35800
▁Ir 35798
padł 35795
unku 35795
▁duchowny 35792
▁Gospodarczej 35789
▁utwór 35786
▁rzeczywistość 35784
▁trudnej 35780
▁skra 35775
▁zmar 35769
Pod 35766
▁stroną 35759
łó 35758
▁Oli 35758
sing 35756
▁dachu 35749
▁Sprawozdanie 35746
▁Central 35744
▁amerykańska 35743
▁Kolejne 35736
Ale 35735
▁ptaków 35733
▁uznanie 35733
fal 35715
▁abym 35705
▁grupą 35704
▁fizyczne 35702
▁mroku 35700
dki 35698
▁Blo 35695
▁istniała 35692
▁programem 35687
▁poważny 35685
▁Twier 35680
▁udzielić 35677
rana 35668
▁podatników 35667
ann 35660
ming 35659
▁potrakt 35653
▁wykonał 35640
▁zastępca 35639
▁zniesienia 35629
я 35628
▁komuni 35624
▁dziennik 35622
▁przyszłego 35621
▁kamienia 35618
▁układzie 35617
gera 35614
▁sformuł 35613
▁Miejscowość 35610
▁czoła 35603
kań 35600
10, 35598
▁upra 35598
rzec 35597
▁pojm 35596
▁mon 35589
▁cierpi 35582
▁Il 35580
▁szli 35580
▁Mach 35577
▁duszę 35574
▁powodem 35567
▁pancer 35566
▁poselskiego 35566
▁wej 35566
lf 35562
▁statusu 35561
▁korytarza 35549
▁ograniczeń 35549
▁zajęcie 35546
pisu 35544
▁odnosząc 35541
skar 35540
▁pistolet 35537
▁szu 35536
▁kapita 35525
▁uzasadnieniu 35525
▁186 35523
▁Australii 35523
tic 35522
▁armia 35518
▁» 35518
▁okazała 35517
▁Cla 35510
▁relacje 35507
▁rys 35507
▁dora 35502
▁pta 35494
▁wola 35493
▁zdań 35489
▁zapomniał 35486
▁ewidencji 35482
▁jedzenia 35479
▁podnie 35477
▁kopalni 35476
› 35475
▁królowej 35470
▁potrząsnął 35465
▁inżynier 35463
▁finału 35441
▁odbyły 35434
▁cieszy 35431
▁poczucia 35430
▁reż 35430
▁rodziną 35427
▁powiat 35423
▁obliczu 35415
▁wyższy 35407
ET 35405
▁przyw 35405
▁zmę 35403
/20 35402
▁przeraża 35399
▁istotna 35397
▁odpły 35397
▁budynki 35391
▁rolniczych 35391
▁zawarty 35389
cam 35386
pione 35381
▁Głu 35379
▁sprzę 35377
▁utworzono 35368
§ 35364
▁Zdaniem 35364
▁sojusz 35356
hn 35353
▁Lor 35352
▁Śląska 35347
▁ogłoszenia 35345
▁1931 35341
▁nawy 35337
▁rejestr 35337
▁społeczeństwie 35335
▁postulat 35310
mencie 35300
▁Najwyższa 35298
▁piętnaście 35298
aliz 35293
▁sos 35290
▁ochoty 35287
▁niższe 35285
EK 35279
▁dziecię 35279
▁93 35273
▁Przemysłu 35268
cik 35265
logię 35264
▁człowieku 35263
He 35246
▁wykony 35245
▁test 35240
▁zgłoszonych 35239
gom 35237
▁odbiera 35234
▁mężczyzną 35232
unki 35225
▁nocą 35220
▁oświadczeń 35219
▁ele 35215
▁przeznaczona 35206
▁śnieg 35200
▁dotyczyć 35199
▁komórki 35191
▁strzel 35191
drze 35187
miona 35187
▁1500 35180
szewskiego 35175
▁specjalistów 35171
ownym 35168
▁tajemni 35165
▁puste 35163
▁psychi 35160
▁szac 35160
▁wpada 35158
▁staty 35157
▁porozumieniu 35154
▁niedob 35151
AW 35150
▁?? 35150
yne 35149
▁zegar 35148
▁wdro 35132
▁wagę 35130
▁integracji 35126
▁poezji 35126
fera 35123
logiczny 35121
▁Gło 35117
▁upro 35114
▁Chodź 35113
▁zwłoki 35111
▁MSZ 35107
▁poinform 35101
▁auten 35098
▁mogliby 35087
tyzmu 35082
wnego 35079
▁błędy 35079
▁wejściem 35078
▁politycznym 35076
▁rozciąg 35075
▁Wielkie 35074
▁triumf 35070
▁dyrektorem 35067
▁głęboki 35063
▁potwierdził 35059
▁czuć 35058
▁nies 35058
11. 35049
▁dę 35042
▁dzisiejszej 35038
▁uzupełnia 35035
gina 35033
▁postanowień 35027
aniom 35025
Si 35024
▁Lotni 35024
▁opowiadał 35021
▁Pri 35013
▁Eli 35009
▁Sol 35009
▁1923 35004
"? 34999
▁rozgrywek 34998
emo 34983
▁Zapewne 34979
▁dobie 34978
nikowi 34975
▁stoją 34968
ore 34964
▁spadku 34963
▁kat 34956
▁zg 34951
▁niepod 34944
sla 34941
atycznego 34940
▁zmniejszenia 34937
▁szybkie 34933
▁pozostały 34928
▁położony 34915
▁Zmiany 34914
▁publiczną 34910
miony 34902
▁rośliny 34895
▁Wolności 34894
▁Zim 34894
cjusz 34889
sznie 34887
▁policja 34886
▁UK 34883
▁Uży 34882
▁zachowań 34870
▁odsetek 34869
▁znaki 34866
hol 34863
▁telefonu 34863
▁odcinka 34859
▁następnej 34857
unt 34855
uję 34854
▁Dun 34851
▁systemy 34850
▁Małgorzata 34848
▁jąd 34845
rs 34843
▁Skład 34840
CI 34828
▁kró 34825
▁wyna 34822
tanie 34820
dru 34806
▁ONZ 34804
▁przygot 34804
▁(196 34799
ąż 34797
▁Bill 34797
▁ludzkości 34791
▁marki 34790
▁znu 34790
▁któryś 34787
▁świadków 34786
▁byłego 34783
fen 34780
▁Gri 34779
▁Bat 34769
▁zamówień 34768
tności 34766
▁występowania 34764
sky 34763
▁członkami 34763
▁bada 34756
łac 34755
▁znalazło 34754
szły 34753
▁SK 34753
▁wewnętrznego 34753
▁podatkowej 34738
▁wynikało 34737
zują 34719
▁gotowi 34719
biał 34717
▁obniżenie 34714
pnął 34712
▁szukał 34709
▁dominu 34704
▁mózg 34704
chali 34703
▁napo 34702
▁podzielić 34701
04 34687
▁Ana 34685
ZY 34681
▁następująco 34679
▁trady 34679
▁zwró 34679
▁Chcemy 34678
▁utwory 34668
▁ustala 34667
▁bad 34664
▁kłó 34664
▁sprzeczne 34655
▁znajdą 34649
▁szeroki 34642
▁udzielenia 34638
▁tamtym 34635
▁przew 34634
▁szczytu 34634
▁kuli 34631
▁wychodząc 34627
▁Zas 34623
▁Rat 34617
▁obywatele 34617
▁złote 34617
▁przerwę 34615
czość 34613
▁Katarzyna 34602
▁naruszenia 34601
▁oświatowej 34601
zacją 34599
▁zagranicznej 34595
▁walczył 34593
▁dołu 34590
zje 34583
▁dach 34579
▁ner 34577
▁poran 34576
▁odbior 34575
▁klasztoru 34566
▁dowody 34565
▁ćwiczenia 34555
▁odpowiadał 34554
tas 34549
▁dymu 34548
▁dykt 34540
▁firmę 34534
▁Hil 34531
▁97 34528
▁Działa 34526
rabia 34524
▁populacji 34523
sam 34520
▁zacząłem 34518
▁czyta 34517
▁sanitar 34509
▁bloku 34498
▁Ska 34496
▁91 34478
gad 34473
▁losu 34473
▁ledwo 34472
▁Fin 34470
▁wojskowy 34470
▁małżeństwo 34468
▁wspólnoty 34468
▁Wia 34465
▁czę 34464
▁matematy 34458
▁nai 34451
▁kwalifika 34445
▁medycyny 34442
▁ruszyła 34438
▁ochroną 34430
▁godności 34424
-9 34423
▁Love 34423
і 34422
▁Katowicach 34422
stość 34415
szło 34414
▁najwyższym 34414
▁uzupełnienie 34414
▁lepszego 34413
▁Zmarł 34398
▁zostawił 34396
▁zegarek 34395
▁Terytorialnego 34394
▁! 34393
▁23. 34392
▁terapii 34386
▁wydawała 34385
▁Jaro 34384
▁utk 34383
▁zem 34383
lica 34380
tków 34380
▁gr 34380
dowego 34379
jają 34377
▁wypowiedzieć 34375
▁Louis 34371
gel 34370
▁United 34365
▁Wydawnictwo 34364
▁negatywne 34363
urę 34361
OB 34358
▁uważ 34357
▁obowiązujące 34353
▁biała 34351
▁Głównym 34349
▁krytyk 34346
▁będący 34344
▁barwy 34338
aria 34335
▁rodzinnego 34335
▁kolejowa 34326
▁utrzymy 34325
▁formalny 34322
▁mistrzostwo 34322
▁doliny 34318
▁ciemność 34314
▁uwię 34314
▁obywatela 34301
▁nieprzy 34297
▁nor 34297
▁Ker 34292
▁Sen 34291
▁uważają 34290
▁wolnym 34290
▁:: 34282
▁długiej 34281
...? 34280
▁Nasz 34279
liłem 34278
▁mający 34276
▁rolni 34273
▁pozbawienia 34272
▁dat 34268
.03 34266
EC 34262
sili 34261
▁bieżącego 34254
▁Ost 34247
żają 34244
▁miejskich 34237
▁regu 34235
gne 34233
▁Natychmiast 34232
▁[...] 34229
rzonego 34220
▁Ludwika 34219
kl 34216
▁napięcia 34212
▁owoc 34207
▁prowadzonej 34206
rzcie 34203
▁przeprowadzone 34203
▁zawodnik 34196
▁wykre 34191
▁posiedzeniach 34189
jeżdża 34184
▁zobowiązany 34184
▁radością 34179
▁ustalono 34176
]. 34175
dźcie 34175
▁opracowanie 34175
▁więźniów 34175
erw 34171
▁zaufanie 34171
▁pociąga 34159
▁Pę 34145
▁rozumiesz 34144
▁Morza 34141
▁Wysoką 34134
▁skupia 34133
▁realizuje 34131
tli 34127
▁Szym 34125
▁zrzu 34117
▁Part 34116
▁rent 34113
▁wię 34110
▁Domu 34108
miana 34107
wor 34104
▁klasztor 34104
▁zespoły 34098
Przy 34096
nnej 34096
atora 34094
▁powiatowych 34089
▁przyjechał 34088
▁Towarzy 34087
▁poinformował 34087
miesię 34084
▁szacunkiem 34080
▁przesą 34078
▁Organizacji 34074
▁usi 34074
▁floty 34066
gają 34065
▁rozgry 34064
▁zarzuty 34062
▁eksploatacji 34059
▁Wiadomo 34056
▁Eg 34048
któw 34043
▁PSL 34033
well 34028
stępu 34027
▁gospodarczy 34023
▁tejże 34023
▁teore 34021
▁klasycznym 34017
▁białą 34016
nianie 34013
▁wybranych 34013
czku 34011
▁formą 34010
▁unika 34010
łał 34007
▁korzyść 34006
▁naturalne 34005
zw 34003
▁spor 33999
▁wami 33999
▁zawarcia 33999
▁dzieciom 33994
▁podkreśla 33993
▁wstąpił 33988
▁prędkości 33986
▁palec 33982
lata 33975
▁spadł 33971
▁trzydziestu 33971
▁widocznie 33966
▁Ple 33963
▁zacho 33962
▁Ek 33957
▁Przynajmniej 33955
▁dokonano 33954
ycha 33952
▁autorów 33948
jon 33947
▁Wydziale 33946
▁myślała 33944
▁spis 33943
▁mło 33942
▁potrzebował 33938
▁przedstawionych 33935
▁drę 33934
ńscy 33933
▁cha 33932
▁odniósł 33931
towanych 33925
▁blasku 33920
wnych 33919
▁uznam 33919
▁1/ 33917
letniej 33916
▁Dam 33916
lano 33913
▁córką 33913
▁srebrny 33913
▁zdą 33909
▁Wcześniej 33906
▁honor 33905
anią 33903
▁kompozytor 33901
▁wysp 33901
▁przedstawiony 33899
▁Rzeszy 33898
▁Iz 33897
▁godzi 33897
▁fali 33890
▁rakie 33890
▁zaatak 33889
▁znajdujących 33885
▁kamienie 33884
▁uważamy 33884
▁porozumienie 33883
▁upły 33883
▁zakoń 33883
bał 33879
▁lubił 33873
▁znajdowało 33870
dii 33868
▁dawnego 33868
▁szpitali 33864
▁Nim 33853
▁przem 33852
▁samodzielnie 33851
▁Mieszka 33848
▁zarzut 33847
▁postawił 33846
▁wysł 33840
▁Iza 33839
▁powiedzmy 33839
▁koalicji 33838
▁zabezpieczenie 33835
▁Der 33832
▁Czuł 33830
▁szum 33826
▁piasku 33825
▁prowadziła 33822
▁prawach 33820
▁Panu 33818
▁ubiegłego 33811
imi 33798
▁funkcjonować 33798
szoną 33795
▁budżetowe 33795
▁Johna 33792
Fran 33791
▁gran 33789
▁powia 33786
▁Bir 33777
▁utwo 33777
▁wskaz 33769
szłam 33761
szeni 33755
▁187 33754
▁nakaz 33753
▁poszukiwaniu 33752
▁posł 33752
▁TV 33751
▁kwalifik 33751
▁Pil 33746
▁opuszcza 33744
▁rozpacz 33742
▁procedura 33741
▁zysk 33741
▁nar 33734
▁zgłoszenia 33731
sę 33726
▁przysię 33726
▁rat 33725
▁wyr 33718
obo 33717
▁papierosa 33712
▁pożąd 33707
▁zdu 33698
▁Róż 33694
▁konfliktu 33689
mać 33688
14, 33681
anką 33677
gier 33677
▁ulgą 33677
▁analizie 33669
▁ustawowych 33665
▁wrzu 33663
laj 33652
▁świadka 33649
▁obfi 33648
▁podeszła 33645
▁USS 33643
▁krzyża 33637
stron 33632
▁pytaniem 33622
▁sześcio 33618
▁śmiech 33618
▁chleb 33616
▁31. 33615
▁Racing 33615
rój 33614
▁występu 33614
▁opieką 33611
▁nosił 33607
▁polityczna 33606
▁maszy 33595
iusza 33594
▁pracujących 33592
▁rzeka 33582
▁biegn 33579
▁kompanii 33578
▁zmieniać 33576
▁Przewodniczący 33574
nna 33567
▁stwierdzono 33558
mić 33552
ins 33532
▁Narodowym 33528
▁ośrodki 33528
asu 33527
▁komor 33516
▁Drzwi 33514
rio 33512
atycznie 33511
▁rucho 33504
▁ćwi 33504
▁bier 33502
▁pasażerów 33498
▁jaskini 33490
ciera 33480
▁poję 33480
ish 33478
▁sądzi 33476
▁dotyczyło 33475
▁drużyn 33474
▁historyk 33474
▁mocą 33469
▁użytkowania 33465
▁rachunek 33462
onego 33453
▁świadczeniach 33453
▁24. 33443
▁dyspo 33440
▁lśni 33434
oną 33429
▁generalnej 33429
rząc 33428
▁występujący 33427
▁\ 33424
▁cieka 33424
▁barwach 33423
spa 33418
▁Polskim 33416
▁wojskowe 33415
▁zarządza 33410
▁milczenie 33403
▁Wen 33401
▁dziennie 33400
▁przekazywania 33399
▁Komisją 33394
pr 33391
▁Chris 33390
▁siedziby 33387
SK 33374
▁wieczor 33373
▁zdenerw 33372
berta 33369
▁usłyszałem 33366
chnęła 33364
▁kontynuować 33363
▁swemu 33360
▁stawek 33358
▁magne 33352
Ha 33349
▁miliony 33347
▁zakończyła 33347
▁wypłaty 33346
▁grać 33345
▁powraca 33344
▁złośli 33342
▁rejestra 33341
ństwie 33339
ame 33337
dując 33334
▁zakazu 33334
▁długa 33323
▁zobowiąz 33321
▁wra 33317
gospodar 33316
▁Bren 33309
▁zasługi 33306
▁obcho 33301
▁swobo 33300
▁odbyć 33295
sja 33282
▁traktatu 33282
liwa 33280
▁południa 33280
dzały 33279
▁przymus 33279
Da 33277
▁sportowe 33274
▁Lar 33272
▁prezesem 33271
▁Dotychczas 33270
▁Zaczyna 33269
▁wyjazd 33269
▁praktyk 33260
▁6: 33257
łowa 33250
▁Jutro 33243
▁25. 33240
▁Duch 33238
▁wyw 33238
100 33228
conym 33228
▁dotyczyły 33228
▁ć 33228
▁egzekucji 33215
.01 33214
szeń 33214
czyliśmy 33212
sper 33209
▁imprez 33209
▁należ 33207
▁gestem 33199
Ca 33195
dujemy 33193
Mu 33192
▁arab 33188
▁składania 33187
▁deklaracji 33186
cum 33184
▁tat 33180
bki 33178
▁argumentów 33178
▁szczeblu 33175
▁kardynał 33173
▁stad 33171
cuje 33167
▁pochodzących 33167
▁Czym 33166
dzących 33158
▁tymże 33156
ownikiem 33155
▁Osoby 33155
▁wioski 33152
fr 33145
▁Wit 33145
▁dotychczasowe 33145
▁mianowany 33145
▁wytłumaczyć 33144
▁ali 33141
▁fundusze 33134
▁atmosfery 33133
▁dala 33132
▁filmów 33132
▁finansową 33123
▁istota 33120
▁ułat 33119
szczą 33117
▁ekran 33112
▁akcje 33111
▁usłyszała 33110
elle 33105
▁ustalenie 33102
wieniu 33101
▁białym 33101
▁non 33096
▁skró 33090
gdy 33086
▁sumienia 33081
20, 33078
▁korytarz 33078
▁otoczenia 33078
▁ws 33078
▁medy 33077
▁negatywnie 33077
▁szczęśli 33075
▁koniecznością 33069
▁metal 33067
cke 33062
▁zlikwid 33062
▁opór 33060
▁uto 33060
▁opuści 33058
▁Ren 33048
▁szk 33047
▁wtrącił 33046
▁optymi 33042
▁chłopów 33041
▁Peł 33038
stkę 33030
dzane 33028
▁Towarzystwo 33028
▁drobnych 33025
▁przeżyć 33024
▁nakład 33020
▁uderza 33017
▁Szczy 33013
▁wieloma 33005
▁Red 33004
▁Zd 33004
owisko 33003
▁delika 33001
tywne 33000
▁prowadzący 33000
12, 32997
zel 32994
▁żart 32994
▁sar 32992
▁skończyć 32992
▁olej 32990
▁Najlepszy 32986
%) 32985
▁północny 32983
ken 32976
▁rywali 32973
dzkie 32972
▁Autor 32972
▁koncentra 32969
▁Międzynarod 32965
▁kali 32965
▁podejmować 32962
▁ojczy 32959
dorf 32953
▁wprowadz 32952
▁wydana 32951
▁trudna 32949
▁International 32944
▁dojdzie 32940
ture 32938
▁oddał 32934
▁Powia 32933
▁generalny 32933
panie 32932
▁Trochę 32931
▁ustanowi 32930
niętym 32926
wcy 32918
▁fala 32918
▁kwi 32913
▁akty 32907
▁poradzić 32903
▁rozdział 32898
▁wyjaśniam 32898
▁ang 32897
▁́ 32897
▁tronu 32894
▁ubranie 32889
▁Drużyna 32887
▁gotowe 32887
▁wnu 32887
▁liczb 32879
▁spróbować 32879
▁protest 32865
▁nienawi 32862
▁Bolesław 32854
▁zacie 32852
▁potrafiła 32848
▁ambi 32844
▁artylerii 32838
jazdu 32837
▁kawał 32831
▁kilkoma 32831
jest 32829
▁zdzi 32823
▁zawartego 32821
▁obserwacji 32820
▁komple 32817
loty 32816
▁napa 32812
wów 32810
▁zespole 32809
▁znacznym 32806
▁Żaden 32806
ping 32801
róci 32800
▁Auto 32799
▁wyglądać 32799
ksy 32798
▁Bet 32798
▁Franciszka 32797
▁naszymi 32796
▁kawy 32793
▁strukturę 32790
▁ładu 32790
▁leki 32786
szane 32785
▁koordyna 32785
▁znamy 32783
▁nawiąz 32781
wioną 32779
mień 32778
tno 32776
▁Warszawskiego 32776
▁obserwował 32776
dawca 32766
▁wysokiego 32766
▁przetar 32762
▁dalszy 32754
▁rozpoczęcia 32754
× 32748
▁celowe 32743
▁przeprowadził 32742
▁domowych 32741
▁ktokolwiek 32740
▁wzajemnie 32740
▁Senator 32738
▁przebie 32736
▁kompleks 32734
▁ścianach 32734
▁przyczy 32733
▁sumy 32732
▁zaczynają 32730
▁zaskoczony 32728
▁Af 32719
szer 32716
▁porucznik 32714
▁załatwić 32714
▁wysoką 32711
mość 32701
15, 32699
▁imieniem 32696
▁Okazało 32694
wiłem 32690
▁Moskwa 32687
tką 32682
ciągnął 32668
▁3:0 32668
▁znają 32667
cania 32663
Dzie 32662
▁nawzajem 32661
▁Wat 32654
▁ścian 32653
▁Marszałka 32652
niczy 32648
▁przywie 32648
▁reguluje 32646
▁Es 32644
▁skał 32638
ologii 32637
▁prosty 32634
▁zapamię 32634
▁pion 32632
▁używać 32632
pania 32631
▁utworu 32630
▁młodości 32627
BA 32616
▁dopuścić 32615
▁bieżących 32613
▁przykłady 32612
▁wystrze 32612
▁bracia 32604
dania 32602
▁50. 32602
▁miliona 32601
ssa 32594
▁Stowarzyszenia 32590
▁krótką 32586
▁rower 32583
zją 32579
▁daj 32571
▁planowanych 32571
▁złam 32558
szały 32556
▁płon 32552
▁szkolnego 32552
▁napraw 32551
▁wojskowego 32549
▁stworzył 32541
hal 32539
▁integra 32535
▁wygła 32535
▁publiczna 32534
▁Jedną 32531
▁wyga 32531
▁jakoby 32530
▁Ole 32527
▁szkoda 32526
▁Fred 32517
▁szczegółów 32517
▁kursu 32505
▁następujący 32502
▁podą 32489
▁Wydział 32480
▁kupi 32474
▁doty 32471
▁weryfikacji 32468
▁spory 32465
szczu 32462
▁Toma 32461
▁Wer 32461
▁pismem 32461
▁Jakby 32460
▁20, 32452
▁krześle 32447
UN 32446
▁Pkt 32446
▁limit 32445
▁samochody 32444
▁czekała 32434
▁powody 32431
▁"( 32427
▁pia 32427
▁połączonych 32426
▁renty 32425
▁Oddział 32423
▁umrzeć 32423
..., 32422
▁każe 32420
▁zapomni 32420
▁ogniem 32414
cjo 32411
▁wbi 32404
turę 32402
▁organami 32402
▁sprzeczności 32402
LA 32401
czane 32401
▁Inaczej 32401
▁posiad 32401
rew 32398
▁wypra 32398
▁biało 32395
▁rządowy 32394
zacyjnych 32392
▁zysku 32391
▁kocham 32389
▁podejście 32387
ÓW 32386
▁przyjętych 32385
▁wyrazi 32382
ude 32379
▁reprezentu 32373
nując 32372
▁Ari 32372
▁Odwrócił 32372
▁Ostatni 32370
▁milczał 32368
▁finansowane 32367
spie 32366
▁ciekawe 32365
▁reforma 32365
▁rządowych 32364
▁1:1 32363
KI 32359
▁Street 32358
▁próbowała 32357
▁księdza 32356
▁przyjęliśmy 32356
▁startu 32349
▁Syl 32343
▁obóz 32342
logicznej 32340
▁zaproponować 32335
▁Łukasz 32335
amie 32334
▁Raj 32333
▁wał 32328
▁mistrzostwa 32327
▁Wprowa 32326
mysł 32324
▁uczestniczyć 32323
▁zawierają 32323
▁Myśli 32316
▁fragmenty 32316
nicza 32315
cała 32314
▁Lublinie 32307
▁trzę 32307
▁bieżąco 32305
puszcz 32302
lnik 32299
▁właściwej 32297
▁Aposto 32295
żnie 32286
▁gospodarczym 32286
▁wuj 32286
▁Roberta 32285
▁utraty 32280
▁czarnej 32279
▁uszko 32277
▁wyja 32277
▁czynniki 32275
▁Imperium 32274
Wo 32273
▁prawdziwą 32263
▁AK 32259
▁piosenki 32254
▁Vol 32253
liński 32250
▁odwró 32244
▁powszechnych 32243
Pe 32236
09 32232
▁łeb 32228
▁narodowości 32211
Wie 32199
rysty 32197
bran 32196
▁godzina 32190
forma 32189
▁napisać 32189
AK 32185
▁Stefana 32177
jego 32176
rany 32176
▁podium 32173
▁Sand 32171
nęliśmy 32165
▁władcy 32161
xa 32159
▁pobiera 32151
wiamy 32140
▁Grecji 32140
▁komórek 32140
▁województwach 32140
▁lite 32139
▁Klasyfikacja 32137
▁szkolenie 32137
▁spodnie 32136
▁pozy 32134
▁90. 32133
▁kwestion 32133
ele 32131
bre 32128
▁TVP 32123
rel 32118
▁nań 32117
▁rozmawiał 32117
▁stulecia 32117
▁znika 32116
lory 32114
▁pojawi 32113
▁odpowiednią 32112
▁owym 32109
dol 32108
kowanie 32103
▁przejął 32101
▁dusza 32097
▁struktura 32094
rowo 32087
liły 32079
▁zasa 32077
▁pozycje 32076
▁swo 32076
wający 32070
▁fale 32068
▁skutkiem 32065
▁śmiechu 32065
▁Niezależnie 32064
▁konstytucją 32061
▁popę 32057
▁trzema 32055
▁rekord 32050
▁szła 32046
▁wybu 32042
▁udziela 32041
▁wprowadzeniu 32041
▁zrozumiałem 32041
Od 32035
▁wieków 32028
▁ogólnego 32024
▁pato 32020
▁pośrodku 32019
▁God 32016
▁dochód 32012
szach 32003
▁Konstytucyjny 32003
▁księżyca 32003
!” 32002
stos 32002
zała 31997
▁lista 31995
▁warknął 31993
▁szukając 31992
▁zasługuje 31992
▁700 31989
▁dziennikarz 31989
▁Kol 31988
▁kli 31988
▁Bożego 31986
▁Ucie 31986
ses 31982
.000 31980
▁zielone 31978
▁wzrosła 31977
▁słuch 31976
ownych 31975
wice 31968
rzonym 31966
▁utrzymaniem 31961
Lu 31957
▁kolację 31956
▁zachodnio 31945
▁$ 31944
▁gardło 31944
▁eksplo 31942
nania 31938
▁stosunkach 31927
▁uchwy 31926
▁udać 31920
sar 31913
▁mandatu 31913
▁Ziemia 31912
▁Š 31910
▁gminach 31901
▁dopłat 31891
rick 31890
szne 31887
żonymi 31887
▁Lei 31887
▁autorstwa 31886
▁wschodzie 31881
wionych 31874
▁napię 31873
stre 31871
▁inwali 31871
▁głębokie 31868
▁August 31865
▁jakiejkolwiek 31865
▁szanse 31857
▁schodów 31851
▁zano 31851
▁Wą 31848
▁poje 31848
▁Centralnego 31835
▁zuży 31834
▁wyposażenia 31832
▁efektów 31831
gas 31829
dż 31820
▁ss 31816
▁Krystyna 31814
▁Santa 31809
▁synte 31807
▁piwa 31806
brał 31805
jnego 31805
▁Bła 31803
▁Mul 31803
▁wypełni 31803
▁Zupełnie 31800
▁wędr 31800
▁automatycznie 31799
▁równi 31798
▁cywilizacji 31791
▁zdo 31791
▁105 31789
▁pak 31788
▁rozpoczęto 31786
▁cer 31784
ralnego 31782
▁uczyć 31782
▁otwarty 31781
▁procedu 31781
▁Zda 31773
leya 31771
czonymi 31767
▁major 31766
▁odmawia 31762
▁wydo 31761
▁Łą 31759
▁dorę 31757
▁dotacje 31757
▁wyższej 31755
▁budowlane 31753
▁egzaminu 31750
▁świeżo 31750
▁wzięli 31748
▁ucieka 31742
loka 31740
▁Sztuki 31740
▁Uzna 31739
▁Pły 31738
▁konkretnie 31735
▁pracowała 31734
▁zewnętrznych 31724
▁albumu 31719
▁więzieniu 31719
▁posiedzeń 31718
cs 31717
▁demo 31717
▁koszu 31716
▁zamknąć 31713
▁powieść 31712
usta 31710
▁dzia 31710
▁Widać 31709
ult 31700
▁gazety 31698
▁powiedziane 31698
▁Bul 31696
mentem 31695
canie 31685
rabi 31685
▁koncent 31684
▁pomyślałem 31684
▁Has 31683
▁Oficer 31679
▁trwać 31678
ake 31673
▁szczególny 31671
▁King 31669
▁przeznaczenia 31666
▁ranka 31666
▁otwar 31665
▁dziwny 31664
▁strzelił 31662
aniec 31661
▁Departamentu 31660
▁ptak 31654
▁działających 31653
▁wykonywaniu 31651
liza 31645
▁fałszy 31642
▁oparte 31639
▁krymina 31638
▁jesienią 31635
▁nauka 31633
▁wynalaz 31632
▁realizowany 31630
run 31627
▁prędko 31627
▁finansowanych 31626
▁zrobili 31625
▁księgi 31621
▁położenie 31619
▁przyjacielem 31614
pł 31612
▁pad 31611
▁przemyśle 31611
▁lin 31609
▁Juli 31608
▁okrop 31605
▁Zakładu 31603
▁badanie 31602
▁wład 31602
▁wzboga 31601
cznia 31599
▁internetowej 31595
mur 31593
▁protestu 31591
▁woła 31591
DZI 31590
polskie 31583
▁sąsia 31583
▁Rosja 31581
▁możliwych 31578
▁inwestycyjne 31577
▁Około 31575
▁przeciąg 31568
▁polegające 31564
▁domaga 31559
▁pilot 31556
▁Krzyża 31555
▁zasadnicze 31552
▁Powiedziałem 31548
phi 31546
▁trudniej 31546
▁mał 31545
▁arche 31542
▁zachodzie 31536
▁propozycją 31532
żer 31528
▁17, 31527
▁Gó 31525
▁Zasługi 31523
▁dochodowego 31523
▁poczę 31522
▁Wcale 31516
▁dokonanie 31511
▁dod 31509
▁podobna 31509
▁epo 31505
▁przyzwoi 31504
▁Straż 31500
non 31498
..... 31496
▁podzi 31495
mor 31490
conej 31488
▁szwe 31483
▁Gry 31481
▁Twój 31480
▁niewia 31478
▁Jen 31476
▁eduka 31461
▁dworu 31458
stwach 31457
Jak 31446
¶ 31439
▁Wyko 31439
▁spółdziel 31436
dry 31435
▁konstytu 31435
cane 31432
▁różnicy 31432
kłe 31426
▁półroczu 31426
▁niejednokrotnie 31425
▁Uważamy 31420
ial 31417
▁drużyna 31417
uer 31414
graficznych 31411
▁medalista 31411
▁szefem 31406
ób 31405
▁Widziałem 31404
▁ciem 31398
▁istotną 31390
▁wykorzystywane 31388
▁zwane 31387
szące 31378
▁zakłó 31378
▁nied 31371
▁zależało 31371
▁podsum 31367
▁Widzisz 31364
spe 31361
▁wodnych 31355
▁tożsamości 31353
▁wąt 31351
07 31347
▁wyciągnąć 31343
▁pokręcił 31342
▁głowami 31341
▁kierowni 31335
▁zachodnich 31332
▁rozumiał 31330
▁Wynika 31328
▁Mówiąc 31325
▁użyciu 31319
▁amerykańskiej 31316
▁szczęśliwy 31315
▁informa 31313
▁cmentarzu 31305
▁zwiększyć 31305
▁odwo 31301
▁produktu 31301
▁formalnie 31296
▁nazy 31296
▁rundzie 31292
▁królowa 31291
vil 31290
▁książka 31282
08 31279
▁wszelkiego 31279
chan 31278
▁szkoleni 31274
▁lotni 31270
dźmy 31268
▁karto 31267
▁ciężarów 31261
▁narzędzi 31256
LE 31253
▁kurwa 31251
▁owoców 31251
jka 31241
▁podar 31234
▁dziale 31231
▁mogliśmy 31229
▁równe 31226
▁Wilhelm 31225
▁Królew 31220
▁zapowiedzi 31219
▁Doro 31216
bec 31210
▁wyraż 31210
06 31209
▁zamach 31207
▁kierownika 31204
▁1:2 31203
▁polecenia 31201
▁zabrania 31200
▁podatkowe 31198
ista 31196
▁młode 31190
▁minął 31189
▁Wor 31183
▁Andrew 31179
dowo 31178
OK 31176
▁zasiłku 31176
▁apara 31175
▁trasy 31170
▁fał 31168
czamy 31166
żni 31159
▁przesłanki 31159
▁wiarę 31158
▁Znam 31156
▁należących 31155
▁Chicago 31152
▁Up 31150
▁elekt 31150
▁polscy 31145
rzało 31143
zać 31143
ов 31143
more 31141
▁skargi 31141
▁Poło 31134
▁skutku 31130
zen 31129
▁Świad 31128
▁robisz 31127
▁Hej 31125
▁sektorze 31120
▁Berlin 31116
▁ptaki 31114
▁realizacją 31112
▁serde 31108
▁persona 31106
▁Kin 31102
▁dziejów 31091
▁przewidzieć 31091
▁szerokości 31088
▁Pole 31086
▁com 31086
▁NEAT 31081
chając 31079
▁proponowane 31077
▁Premiera 31072
▁rodzinne 31068
▁Staro 31065
▁Ostatnie 31062
zło 31060
▁toczy 31060
▁zrobię 31051
▁trz 31047
▁zagadnienie 31047
▁nerwowo 31045
▁70. 31041
▁przypominał 31040
Se 31037
▁skaz 31035
▁zmuszony 31035
▁koszy 31034
▁funkcjonują 31029
▁reklam 31029
▁weszli 31026
wien 31024
▁obywatelskich 31022
▁oczekiwać 31021
▁autostra 31018
▁fizjo 31018
▁któ 31016
▁dzisiejszych 31011
mujemy 31009
▁uzyski 31003
▁ekranie 30995
pas 30994
▁hotel 30994
▁wymag 30991
▁Sun 30986
▁traf 30984
techni 30980
▁Yu 30974
▁zwracając 30972
▁widziałam 30964
▁Ron 30959
▁wyproduk 30959
▁przeprowadzonej 30957
▁spodziewał 30957
▁rannych 30955
atycznej 30954
▁kochanie 30954
▁praktyka 30954
▁spółce 30950
▁Lat 30945
▁Stanowisko 30937
▁Tob 30936
▁statki 30933
wających 30932
ralny 30931
▁kata 30929
▁Góry 30928
▁Pół 30925
▁zastanawiać 30925
▁Koz 30924
▁uznaje 30922
▁parlamenta 30921
▁kontrole 30917
▁Wis 30916
mały 30914
▁Brytyj 30914
▁Stre 30908
▁podmio 30901
onym 30900
iała 30896
▁naduży 30895
▁dzienny 30894
▁polemi 30892
▁kwia 30887
▁przebi 30885
▁agen 30882
▁blask 30880
▁Mógł 30878
iny 30877
▁184 30870
▁prakty 30869
▁pch 30867
▁straci 30867
▁wysłał 30867
żyliśmy 30862
▁węgl 30859
▁mogąc 30858
▁podejmie 30856
▁adwoka 30853
▁niewido 30847
▁inżynie 30844
▁sztuka 30844
▁zapytałem 30844
wieni 30843
▁narodów 30835
▁przynieść 30835
grze 30834
▁mieszkaniu 30834
▁rozegrał 30832
DZ 30828
▁naruszenie 30827
dnymi 30825
▁Tomasza 30825
▁prawomocnie 30824
▁miesiącu 30823
▁zwa 30823
▁hono 30822
▁ogłosił 30821
▁18, 30814
nali 30813
▁nawie 30813
▁Jani 30810
▁aniżeli 30810
wśród 30809
▁Spojrzała 30809
▁finansach 30806
▁okręty 30806
▁mężem 30805
▁Mama 30804
▁bandy 30799
▁mięso 30798
▁Kel 30792
▁Trze 30789
▁niechętnie 30788
▁Ciem 30775
▁oli 30770
▁skończyła 30767
▁Hand 30764
▁pragnienie 30759
▁przech 30759
▁ukoń 30756
▁wrogów 30754
▁Naz 30751
▁święty 30747
▁Holandii 30746
▁bezpośredniego 30745
▁ośrodek 30745
tku 30744
wnym 30743
▁bomb 30743
ç 30742
▁Cię 30741
▁inwestorów 30741
▁dzisiejszy 30733
IM 30731
▁spowodowane 30731
entem 30728
▁oknie 30724
▁bratem 30722
▁dyskutować 30722
▁parlamentarnych 30722
▁emi 30718
▁kawałki 30718
▁wystarcza 30716
ee 30710
▁nierów 30710
▁treścią 30703
▁resor 30702
▁uroczystości 30702
▁zmierzające 30699
rzeni 30695
▁rolnictwie 30691
▁poruszył 30690
▁Igrzyskach 30689
ui 30688
▁strefie 30687
▁obecne 30681
▁prawdziwa 30680
▁niewidzia 30676
▁deter 30669
▁rej 30669
▁kierować 30664
▁polecił 30663
óg 30662
▁proponują 30662
▁laboratorium 30651
▁wypowiada 30650
▁zagrożeń 30648
wła 30646
▁Wojskowego 30642
▁zapropon 30639
▁ekonomiczne 30637
▁kwiatów 30633
▁wyścigu 30630
▁obsa 30622
▁pomyśl 30622
▁pry 30619
▁Mus 30617
▁wyższa 30617
▁pogłę 30616
▁Środki 30616
Or 30614
▁używane 30612
▁miną 30609
▁pierwotnie 30609
▁(6 30607
▁przyjemności 30604
ín 30600
▁użycia 30600
OZ 30598
letnim 30598
▁któregoś 30592
▁wynosił 30590
▁potom 30586
▁osobistych 30585
▁zapo 30585
▁gó 30580
maj 30578
▁Panny 30575
gov 30570
▁zakła 30568
▁183 30564
▁80. 30563
czysz 30560
char 30557
▁oca 30557
▁Tych 30553
▁Monte 30552
▁naukowej 30552
jały 30547
▁przewie 30542
▁Klu 30539
▁malarz 30539
▁Chin 30538
▁dotknął 30538
▁niewystarcza 30538
▁pier 30534
▁Młodzieży 30531
chodząc 30530
plan 30529
▁zmęczony 30527
rzać 30524
procent 30522
▁aktywność 30521
▁bój 30521
▁głodu 30521
▁stałego 30517
▁grun 30513
▁istot 30513
▁udziałów 30512
zować 30507
▁Wan 30497
sik 30493
▁policjantów 30488
▁Wel 30486
▁górach 30484
cych 30481
▁kierując 30473
▁krajem 30473
szało 30471
vis 30466
▁125 30462
▁Zgadzam 30462
denta 30460
▁Generalnego 30452
▁weszły 30452
zła 30447
atorów 30446
▁zmysł 30444
▁Iwan 30441
▁rosyjskiej 30441
lety 30436
▁Lucy 30435
▁wolnego 30435
▁Stowarzyszenie 30432
▁Proces 30431
duk 30429
▁precyzyjnie 30427
▁chmury 30426
▁SC 30409
▁Zbrojnych 30409
żar 30407
▁karnych 30403
▁wrę 30403
▁usiadła 30398
My 30396
▁uniwersyte 30393
▁audy 30385
▁dotychczasowej 30383
ologi 30375
ństw 30375
▁Teo 30371
▁Litera 30368
▁tren 30367
▁pierś 30363
▁budowli 30362
▁upływie 30360
tujemy 30357
kania 30355
▁Nick 30353
▁brzuch 30347
pnie 30346
sun 30344
▁prąd 30342
▁języków 30341
▁wspaniały 30341
▁Brytania 30336
▁koledzy 30334
▁choroba 30329
▁zobaczyłem 30328
Ź 30327
▁straszli 30326
▁Tabela 30322
▁ocen 30318
▁lokalne 30313
▁miesię 30311
▁wkro 30309
gara 30306
▁lini 30306
▁łańcu 30306
▁metodą 30304
▁Równocześnie 30303
▁dźwię 30301
▁wspól 30301
▁brakiem 30300
▁lustra 30300
▁proro 30297
▁lasy 30294
chodzimy 30288
▁urat 30287
▁Europa 30286
▁set 30286
dzieliśmy 30281
▁socjalnych 30280
▁Wojciecha 30275
ino 30267
▁usunąć 30267
▁szczu 30266
▁zdjęcie 30266
▁Rio 30264
knie 30259
▁Zarówno 30259
▁odwrotnie 30259
▁data 30258
ugh 30248
▁kontynuował 30244
▁ustawodaw 30244
▁oskarżenia 30243
rzonej 30241
wica 30239
▁Chrystus 30237
▁białoru 30237
▁zarys 30237
przed 30235
▁osobiste 30228
▁zarzutów 30223
▁okazy 30222
▁stanem 30220
▁pogar 30216
▁zniszczyć 30215
▁Uśmiechnął 30214
▁tekstów 30213
tina 30207
▁zachodu 30206
cky 30197
wień 30195
▁wspina 30194
gowego 30193
▁uwagą 30193
nal 30190
▁plasuje 30185
▁producent 30181
▁przyszłych 30179
▁odszkodowania 30178
▁tęsk 30172
▁niski 30165
▁krzesło 30164
▁monar 30163
ges 30159
tacje 30146
▁dokony 30146
▁zawód 30140
mera 30137
▁odm 30137
▁szlak 30136
gowa 30134
▁popełni 30129
▁matce 30126
▁Eve 30121
czącą 30120
▁zagi 30119
ciwszy 30108
▁Grze 30107
▁niemieckim 30105
▁oparty 30101
▁skuteczności 30093
szczeniem 30091
▁Tony 30090
▁jednoraz 30087
▁Działania 30086
jąłem 30077
▁spło 30077
▁dziwa 30076
▁przeznaczeniem 30076
▁Nowak 30061
▁wodnej 30059
▁obowiązującego 30055
▁sym 30054
tałem 30043
wiński 30039
▁odpra 30037
▁ber 30036
▁koniecznie 30036
letnie 30033
jš 30031
▁uf 30030
▁Dek 30029
ini 30025
▁kolanach 30025
▁Miło 30024
▁trzecią 30023
▁ubezpieczenie 30022
ara 30014
▁słońcu 30011
▁Hali 30007
▁Seniorów 30007
▁znaków 30002
lka 30000
▁oznaczać 30000
▁drogowym 29997
▁Myślałem 29996
▁określi 29994
▁żół 29981
▁rozpaczy 29980
▁dywizji 29976
▁spoza 29976
▁uległ 29976
▁białego 29975
▁Pamię 29974
▁włosach 29974
żd 29973
▁służ 29963
▁wyposażenie 29958
▁kontrolą 29956
▁zamówienia 29955
met 29954
▁Zaczął 29954
▁pozwolą 29952
▁półtora 29952
maty 29951
ffa 29950
cym 29949
▁latar 29949
Go 29947
▁oczekuje 29945
▁Instytucie 29943
▁opieku 29937
▁prawdopodobne 29932
▁wasz 29932
▁domach 29931
▁spokojny 29931
▁dokumencie 29930
▁koły 29924
▁ubrania 29919
▁przestępstwo 29916
▁odcinków 29912
▁ofert 29912
▁elektro 29908
▁znacząco 29908
▁Moc 29905
▁mniejsza 29899
▁(12 29898
▁Wczoraj 29897
tkami 29896
kol 29894
kowany 29894
▁Krajowa 29889
▁plac 29882
▁poprawić 29880
bom 29876
unda 29875
▁Odpowie 29875
▁zawa 29874
pot 29873
▁koncepcja 29872
▁19, 29871
▁pociągu 29871
bit 29870
▁prasy 29866
▁herbu 29861
▁głosował 29857
▁Mianowicie 29855
jenie 29853
▁poddać 29852
▁szczegół 29852
▁byłych 29850
▁badaw 29846
▁zrealizować 29843
▁zupeł 29842
▁nakłada 29841
▁Transportu 29840
▁nauczy 29840
▁minę 29839
▁cyfr 29838
▁mówiono 29835
▁uznała 29834
▁przyjaźni 29832
obecnie 29831
▁kultur 29823
▁Hall 29820
▁Leszek 29819
▁pró 29817
▁Dur 29816
▁26. 29812
▁wydają 29805
▁inspektor 29803
czników 29802
▁Administra 29801
▁Pierwszym 29800
▁powierzchnia 29796
nomi 29794
▁monitor 29790
▁Rynku 29788
inę 29785
▁dyscypliny 29783
Ho 29778
▁poczu 29777
▁José 29774
▁wzy 29774
▁Badania 29773
▁Music 29772
▁błogosła 29770
▁Katowice 29766
▁szat 29766
▁niskie 29764
lania 29758
▁granicami 29752
▁magazyn 29752
▁przyciąg 29752
▁niebezpiecze 29751
▁sile 29750
▁Meksyku 29747
▁opinią 29747
▁Gran 29746
lt 29741
▁amerykańskiego 29740
▁Jur 29739
▁zamyka 29736
▁Reprezentacja 29735
▁Pozosta 29734
▁wykonaniu 29732
▁zbliżył 29732
▁działu 29729
▁opłaca 29727
▁60. 29724
▁Nasza 29724
▁pozbyć 29721
▁opowiedział 29718
▁kształtu 29717
▁zespołem 29714
▁gniewu 29713
▁sekundy 29713
▁możecie 29708
▁waria 29708
ima 29703
wód 29703
▁piętrze 29703
▁rozsąd 29703
▁olbrzymie 29702
prawy 29699
▁Techni 29696
▁niesie 29691
▁Obawiam 29690
▁IN 29688
▁jakikolwiek 29688
▁Izraela 29685
▁liga 29684
▁usłu 29681
▁National 29680
▁ciężki 29673
rzach 29670
svg 29667
▁dwanaście 29666
▁prowadzące 29654
▁Regi 29651
▁korzystne 29651
▁fer 29647
▁czynić 29643
▁szlachec 29641
▁rezerwa 29637
▁ukazała 29632
dnią 29630
▁Mes 29629
▁wzro 29629
▁ustalania 29628
▁zadłużenia 29624
▁panny 29622
kowskiej 29621
▁spółkę 29620
▁czwartej 29618
▁nę 29618
▁lamp 29616
SS 29615
▁sygnały 29614
żania 29613
▁barbarzy 29609
▁czerwony 29601
▁Źródło 29600
▁rozpra 29596
▁Najwyższy 29593
▁wyzy 29588
▁żelaz 29587
▁PAN 29582
BC 29570
▁liczył 29568
▁poka 29565
▁śledztwa 29564
12) 29561
▁lady 29561
▁gotowy 29560
▁Oslo 29558
▁pochło 29555
rost 29554
▁energe 29554
cząca 29552
▁listów 29550
dri 29548
▁poszli 29546
▁wyczerpu 29544
▁klu 29539
▁odwołania 29539
▁uzysk 29539
▁ukończeniu 29536
▁trafia 29535
▁płynie 29534
tkiem 29530
▁medali 29530
ologicznych 29529
▁Jam 29529
▁zawody 29529
▁ćwierć 29525
sum 29524
cjoni 29520
▁klien 29520
▁pomieszczeń 29517
▁artykule 29516
▁wykształcenia 29516
▁ośrodka 29514
▁pozbawione 29514
▁Sukcesy 29512
▁dotyczyła 29512
▁Szwajcarii 29511
▁ograniczone 29511
▁religijnych 29510
▁wzajem 29509
▁Wysokość 29507
▁administracyjne 29507
nistów 29505
▁trudnych 29505
skała 29504
▁Jones 29502
▁skarbowej 29502
▁dystrybu 29500
▁ogromnie 29496
▁kolejna 29494
▁powodują 29494
▁wydało 29494
▁otrzymują 29493
▁siedzibę 29491
▁tempie 29489
▁podejmowanych 29487
lad 29471
▁wydarzyło 29470
▁znajomości 29470
▁koncert 29469
▁zabie 29465
▁Gen 29464
▁podręczników 29462
▁listu 29460
▁Londyn 29455
▁rozkład 29455
koła 29454
▁urzędni 29450
▁sąsie 29448
tyku 29436
▁szacunek 29434
▁efektyw 29430
czącej 29429
▁mięśnie 29427
▁wypi 29425
▁102 29424
▁importu 29424
nosi 29422
▁ojczyzny 29412
mujący 29407
▁seg 29407
▁sznur 29403
▁27. 29402
rag 29398
tle 29384
▁Francisco 29384
▁__ 29382
▁Charlie 29381
▁zjawi 29377
▁bezpośrednich 29374
▁francuskiego 29373
▁Ist 29372
▁Słuchaj 29369
▁krąg 29363
lanej 29361
stwu 29361
▁robotni 29355
mieniu 29344
▁rozkazu 29337
▁wymienić 29332
leci 29330
kana 29328
▁dziewczynka 29327
▁Prace 29326
▁wspom 29325
▁doda 29322
▁funkcjona 29320
cowi 29319
▁narodowe 29317
▁stałej 29317
eme 29311
ted 29306
▁restauracji 29289
▁przetargu 29287
▁katalog 29281
▁ruchów 29281
▁dziedzictwa 29277
▁partia 29277
gnia 29275
jako 29275
▁sum 29273
▁kwestiach 29270
▁ucznia 29270
jną 29269
▁Stalin 29268
owując 29266
▁Urodził 29266
▁przeję 29260
mini 29259
▁ekonomicznej 29256
▁prom 29252
▁finansowy 29250
▁koszulę 29250
▁słyszy 29246
▁rejestracji 29245
▁robimy 29244
▁Albert 29237
▁damy 29237
▁gest 29222
▁miałaby 29218
▁grzbie 29215
▁fizycznego 29212
▁opad 29210
▁gabinecie 29206
▁dba 29203
▁ziemie 29203
▁alkoho 29201
▁zamkniętych 29201
▁otworzyły 29195
▁° 29194
▁Sad 29190
▁Kot 29186
▁hab 29181
▁hrabi 29179
▁przepu 29174
▁Zy 29170
▁resztki 29165
▁niewo 29155
▁zdrowotne 29155
â 29153
▁Wojsk 29153
▁kawę 29151
▁zaprojekt 29150
▁zjedno 29142
▁Glo 29140
▁niszczy 29140
▁wysa 29140
wiające 29139
▁1– 29138
▁goście 29138
puszcza 29132
▁ograniczyć 29131
towali 29130
', 29128
niętej 29123
▁socjal 29123
▁Gie 29119
▁prawdziwym 29118
▁Nak 29116
▁profilak 29113
▁większością 29110
▁leżały 29108
▁zerwał 29107
▁szkolnych 29103
czkach 29102
▁doby 29102
▁rehabili 29101
lara 29100
gały 29098
▁scenie 29086
▁wieści 29086
dob 29085
▁powstrzy 29084
▁ą 29078
▁samorządzie 29076
▁komplet 29073
▁wniosk 29071
ky 29069
▁czwarty 29069
tary 29068
▁rycer 29066
wskie 29061
▁przeka 29061
▁włó 29058
▁posłanka 29055
kal 29053
szkę 29047
▁skazany 29043
▁podejrze 29041
▁Koło 29039
▁zmart 29037
▁biblioteki 29036
▁wytwarz 29034
ryka 29031
▁Gol 29031
▁poznania 29030
szkiem 29026
▁konstru 29026
▁konsumentów 29026
sunął 29021
▁posunię 29018
▁tempo 29016
▁zabawy 29013
We 29012
▁egzamin 29008
▁kulturze 29006
▁postu 29001
eri 28999
▁inteligencji 28999
▁przenieść 28998
libyśmy 28996
▁przeszkód 28992
▁Julia 28991
ĹĽ 28990
▁rejon 28989
▁płyt 28987
graficzne 28982
▁brzy 28980
▁biurku 28979
▁dostosowania 28979
▁młodym 28978
▁Znajduje 28977
▁łóżko 28974
▁posiadanie 28972
▁wcześniejszych 28972
▁mostu 28970
▁pożyczki 28966
ree 28964
▁ulic 28964
▁Augusta 28963
▁skierować 28963
▁gorz 28962
▁wykazy 28957
▁uciekł 28956
▁czułem 28947
▁przechodząc 28947
▁Wydaw 28945
▁wyjście 28942
▁arcybiskup 28941
▁pij 28941
▁odwro 28939
▁Chciałam 28938
▁obowiązującym 28931
▁przedstawionego 28928
▁inspek 28924
sad 28922
▁znakomi 28920
leż 28917
▁wolnych 28914
▁Moskwy 28913
▁otrzym 28912
▁żywi 28905
▁hitler 28900
bad 28895
śpie 28895
▁celowej 28894
▁oficera 28894
▁sprzeci 28893
bury 28892
czków 28892
▁Zako 28892
▁stoczni 28880
▁siost 28877
▁obrazów 28874
▁zawar 28873
LI 28872
▁wspomnienie 28872
▁kredyt 28869
16, 28862
▁dodatkowego 28862
▁siedzieli 28862
wel 28861
▁powszechnym 28860
▁wrzasnął 28856
▁ulicach 28855
▁finale 28852
▁pasz 28851
▁proponowanych 28850
part 28847
gowej 28843
▁Panów 28843
▁29. 28842
▁bezpośrednie 28841
▁er 28839
”) 28838
▁uśmie 28837
▁wojen 28836
ciej 28834
▁melo 28832
▁kształtowania 28821
▁norwe 28821
▁nadzwyczaj 28820
▁przestrzennego 28819
▁Uniwersytet 28813
▁zmodyfik 28811
▁Paryż 28810
ose 28809
▁dyrektorów 28801
▁samemu 28799
▁mą 28798
▁uchwała 28796
▁Ober 28793
▁Złoty 28793
▁złożonych 28792
▁mistrzem 28787
▁problemami 28785
▁transakcji 28784
▁opowieść 28781
dnicy 28778
▁Sty 28777
▁League 28775
szku 28770
▁istniał 28769
▁Znaj 28768
pii 28766
▁lasach 28764
▁słaby 28763
▁pamiętał 28761
▁zaopat 28761
szami 28760
▁NIE 28758
▁rozejrzał 28758
▁Demokra 28757
niętego 28749
¦ 28748
▁cieszę 28747
▁wykonawczych 28746
▁chcielibyśmy 28745
▁zgromadzenia 28745
▁dodat 28744
▁Mos 28742
▁łatwe 28742
▁mówiliśmy 28739
▁Konstan 28738
▁fik 28737
▁historycznych 28736
czes 28735
ppe 28730
▁samotnie 28726
▁stanąć 28725
mp 28723
▁panował 28723
▁zwanej 28721
▁Podla 28719
▁mięk 28718
▁wysiłkiem 28718
▁zakry 28718
ía 28715
▁spoglądając 28715
▁święto 28715
▁osło 28714
▁literaturze 28710
▁Toteż 28708
▁przyniosła 28705
▁końcem 28703
▁polityków 28700
jali 28697
▁korytarzu 28696
▁lekarze 28695
▁symp 28690
▁parlamencie 28686
▁węgier 28682
▁instruk 28680
▁Monachium 28679
▁inicj 28679
▁radyka 28679
▁administrację 28678
▁przypis 28678
ED 28677
lator 28677
▁(13 28677
▁wspólnych 28677
▁sprowadza 28675
▁filozof 28674
▁zachował 28674
▁28. 28672
▁obiektyw 28671
▁wszelki 28668
▁indywidualne 28658
▁oparł 28657
▁miedzi 28655
▁suger 28655
▁odd 28653
lskiego 28650
▁żąd 28647
iało 28646
▁szlachet 28646
▁służą 28639
▁aposto 28634
▁rozmaitych 28634
▁realne 28633
▁libe 28631
▁2020 28626
jnym 28625
syjne 28625
▁księży 28625
▁{ 28623
ema 28622
razy 28622
▁iry 28619
▁history 28615
▁aparat 28612
Hi 28607
▁wyborczej 28606
fę 28599
▁pokrzyw 28597
▁wesoło 28591
▁wykrzyknął 28589
▁najwyższy 28586
▁pospoli 28585
DR 28584
▁tematem 28584
▁wypeł 28582
▁założyciel 28581
▁Bos 28580
▁studiował 28575
▁fat 28568
▁lan 28567
gląda 28563
▁związanej 28563
feld 28562
▁mniejszych 28562
▁dotarła 28561
▁eli 28560
▁koloru 28556
▁Pułk 28554
▁wasza 28554
▁przeła 28552
▁przycisku 28551
▁brzmienia 28547
klu 28545
▁arystokra 28544
▁leg 28540
▁patrz 28540
▁wyszli 28536
lary 28534
mawiał 28533
▁ramion 28533
▁Roger 28532
▁Ah 28529
▁apte 28527
▁All 28519
▁pośpiechu 28518
▁̆ 28518
▁ośmie 28517
▁Kla 28516
▁om 28516
▁początk 28516
▁powrócić 28514
wic 28511
▁specjalny 28508
▁południowy 28503
▁załą 28503
▁liczbą 28501
miu 28498
sali 28498
▁pała 28498
▁Republika 28497
▁kuzy 28495
▁wspólno 28488
▁powyższych 28484
▁hiszpa 28480
▁autostrady 28479
▁pracownikom 28475
▁internet 28474
▁+1 28473
lei 28472
▁_ 28472
▁zgła 28470
▁bruta 28468
▁minutach 28468
▁rozpo 28464
▁barier 28463
▁przyznanie 28460
▁ogółem 28455
▁zagłę 28455
▁normalnie 28453
▁Joseph 28452
stom 28450
© 28449
▁wejdzie 28449
▁wspaniałe 28446
▁nazwał 28443
czas 28442
▁wieki 28442
▁uszu 28441
▁Green 28433
▁gwar 28433
▁gład 28429
▁mog 28429
fin 28426
prac 28425
▁oglądać 28424
▁Sur 28423
▁możliwa 28423
eth 28420
rowie 28420
tywy 28419
▁Jedynie 28419
▁Też 28413
▁łódź 28411
▁zwykły 28410
raca 28409
▁szybkim 28408
phy 28403
▁Est 28401
▁szeptem 28397
▁Ski 28389
▁ostre 28381
▁wykonywane 28379
▁pobyt 28378
▁Scho 28375
▁Tim 28375
▁referen 28374
▁walu 28374
▁cofnął 28372
▁Niez 28371
▁kompletnie 28368
Cz 28366
▁Sim 28366
▁Un 28366
▁niewielką 28365
▁zama 28363
▁cuk 28360
▁uprawnionych 28350
▁bliska 28347
▁niema 28347
▁biorą 28346
▁współczesnych 28345
▁śniadanie 28345
▁gromad 28344
cali 28342
▁wystąpiła 28342
▁uzyskaniu 28339
▁Zacho 28336
▁wieczora 28336
▁żołnierza 28336
▁Des 28333
▁krzyw 28333
▁1915 28330
▁zajmowała 28326
▁Zbigniewa 28325
▁elegan 28324
▁wizy 28324
▁czynu 28323
▁wydziału 28317
hat 28316
▁dziedzinach 28316
stali 28315
▁Jon 28309
▁ciężkich 28308
ccy 28305
/200 28298
▁historyczne 28298
▁KP 28297
aliśmy 28294
▁Bil 28294
▁rozwijać 28293
▁zaproszenie 28292
▁Rus 28288
▁Włochy 28288
▁wystąpi 28288
▁rozba 28287
▁kierowca 28285
wnej 28280
▁białej 28280
▁hrabiego 28278
▁40. 28264
▁odrobinę 28264
▁ujęte 28261
▁It 28258
▁przyci 28258
rócił 28257
▁pochwy 28254
▁lada 28252
lizowanych 28245
tis 28245
▁Możliwe 28243
▁dowódcą 28235
▁opóź 28232
▁znieść 28229
bru 28228
rót 28225
▁prawą 28224
niosły 28221
rn 28221
▁PS 28217
▁Gromada 28215
▁Ostr 28208
owcem 28203
▁uciekać 28203
chia 28201
owisk 28200
tó 28198
__ 28197
▁czekają 28197
▁zatrzymała 28197
▁wysiłek 28195
brać 28194
▁Rezultat 28185
▁legis 28183
▁pokrycie 28180
śka 28179
▁celi 28178
▁wyróżnia 28177
▁kabiny 28171
▁zawartość 28169
▁Witold 28166
▁Vil 28162
▁działaniu 28162
dale 28160
▁wp 28155
▁służba 28154
▁rozkazał 28151
▁zaost 28149
miła 28145
▁5) 28143
▁Pio 28143
▁złapał 28142
▁niewielka 28128
▁podobnym 28127
▁komendanta 28125
▁Inni 28122
▁przerwie 28120
▁funkcjon 28119
ond 28117
▁kierownictwa 28114
mieniem 28111
▁zróżnic 28108
▁górnej 28107
▁zniszczenia 28106
▁technicznej 28104
▁Hart 28102
▁powod 28098
▁właściwą 28097
▁salę 28096
can 28092
szna 28089
▁filozofi 28087
czerwo 28080
▁Zrobi 28078
▁posą 28075
mas 28074
▁moderni 28070
▁tron 28070
▁uzyska 28070
▁Mów 28067
▁popular 28065
▁urucho 28064
king 28059
▁tabli 28059
▁uko 28059
▁Rock 28058
▁pode 28056
▁dynastii 28052
▁analizę 28050
▁rozporządzeniem 28047
▁0,5 28045
pełnia 28036
▁czarnym 28036
▁sprzedać 28036
źli 28029
▁PKB 28029
▁Buk 28026
▁Karo 28024
▁pw 28022
▁obniżenia 28019
▁stwa 28012
▁lord 28010
▁pięk 28008
▁wyszło 28008
▁Bart 28007
▁szybkiego 28007
▁inteligent 28006
▁Scott 28001
▁robota 27999
▁szer 27999
anę 27997
▁White 27997
▁gospodarka 27994
▁rozciąga 27987
rody 27983
▁rzucić 27979
▁natura 27977
▁Skar 27974
▁̨ 27974
▁lotniska 27972
▁opowiedzieć 27972
▁Przepis 27970
▁Sir 27970
▁PZPR 27964
▁wspomnieć 27964
▁mobi 27962
▁Sel 27959
szar 27956
▁gospodarkę 27956
▁Hum 27953
▁ogro 27952
xi 27949
▁francuskiej 27947
▁rzut 27945
▁NGC 27941
▁formacji 27937
▁nienawiści 27930
▁ewolu 27929
▁kierunków 27922
▁swojemu 27920
▁centra 27918
yj 27916
▁uderzenia 27912
tycznymi 27905
▁sm 27900
lena 27899
▁telefoni 27895
▁krajobraz 27893
szczeniu 27892
giego 27891
α 27891
▁Śląsku 27891
▁odgłos 27890
Bar 27889
▁organizmu 27889
▁pogor 27886
▁Leży 27885
▁Departament 27883
й 27881
▁wpat 27881
13. 27880
▁słyszała 27880
▁skuteczne 27879
▁skórz 27879
▁ogła 27878
▁sklepu 27878
▁zrozumiała 27876
▁przytu 27875
▁Turystyki 27873
▁dźwięki 27867
▁ogromnym 27864
chni 27862
▁licen 27860
▁uległa 27857
▁znisz 27857
▁spełnienia 27854
▁świadkiem 27854
▁spór 27853
▁OB 27851
▁przepły 27851
torowi 27849
▁dopłaty 27846
▁turysty 27846
▁wyrazów 27844
▁pul 27843
▁robiła 27843
▁handel 27841
▁prawdziwego 27841
▁zdał 27840
▁chęci 27830
▁wyraźne 27830
▁mechanizmów 27828
▁chemi 27826
arnych 27825
▁Fil 27823
▁przybywa 27822
▁reprezentant 27819
▁ogromna 27818
para 27815
▁przestała 27814
▁teatru 27813
▁naci 27812
▁wywiadu 27812
▁mediach 27810
▁panuje 27809
rują 27808
iony 27806
▁aktyw 27805
▁przekazywane 27805
▁wyniosła 27805
▁wykazie 27803
▁otoczeniu 27801
▁płuc 27801
SKA 27800
alni 27800
▁CH 27797
▁dziesięcio 27792
▁przeprowadzono 27790
▁metoda 27788
▁kategoriach 27785
▁kochać 27784
▁Hitler 27783
▁ewentualnych 27780
▁minutę 27777
▁Danii 27774
▁kompozy 27769
▁niekorzyst 27768
▁Bazy 27765
▁Oby 27765
▁bezpiecznie 27765
▁1900 27761
▁Nadzoru 27758
▁wyjdzie 27754
▁chmu 27753
▁konkre 27753
▁przestrzegania 27753
▁ogon 27750
brzy 27740
▁butelkę 27738
▁dokumentach 27730
▁plus 27730
▁obowiązującej 27729
▁reprezentuje 27725
Bi 27724
▁wysyła 27722
▁poga 27721
▁wypada 27721
▁Bogiem 27717
▁boli 27716
gowym 27715
mawia 27715
▁regularnie 27715
▁tek 27715
▁kryształ 27712
▁gruntu 27709
▁znad 27709
▁koście 27708
aks 27706
▁Czerwonej 27696
▁sumę 27696
▁wnioskodawca 27686
sur 27680
▁przyjemnością 27680
2017 27679
lecie 27678
▁miłością 27677
▁Irlandii 27674
▁mian 27673
▁Nau 27671
zak 27669
▁bul 27669
▁zasadne 27668
sarz 27655
▁odbiorców 27654
▁docie 27649
▁gospodarowania 27649
▁nożnej 27645
▁zdziwił 27645
▁lotniczy 27642
▁chronić 27633
stąpi 27632
▁zadzwonił 27628
▁złapać 27626
▁Kamie 27625
▁demon 27625
▁składają 27625
▁marszał 27624
▁poszu 27622
▁przeszłość 27620
terna 27618
▁złym 27618
▁color 27613
▁pól 27609
▁modu 27604
koj 27601
▁chorego 27598
▁opracowy 27596
▁najstar 27593
▁wstrzy 27592
▁potwor 27590
▁komputera 27587
▁hal 27585
▁rządzie 27582
▁ustami 27581
▁średni 27581
dował 27576
▁koncesji 27576
▁Mogą 27571
▁nazywał 27569
▁późniejszych 27562
▁Krze 27558
▁płyta 27553
▁trzykrotnie 27550
▁upośle 27548
▁utrzymuje 27545
▁Brąz 27542
▁emerytur 27537
▁widzą 27534
▁egip 27533
wskich 27526
▁Poja 27526
CA 27524
▁kieli 27523
▁nareszcie 27523
▁uwolnić 27518
▁rozgrywa 27517
▁traktuje 27515
▁Clar 27513
▁doko 27513
▁zwy 27513
▁republi 27512
▁zapadła 27511
▁występować 27509
▁powiedzieli 27508
▁Zespołu 27507
wiej 27505
▁Rom 27503
▁certyfika 27503
▁czarodziej 27499
knąłem 27498
nowie 27498
▁podjęto 27498
▁zgi 27494
nują 27492
tet 27492
▁siedzieć 27489
▁Lublin 27488
▁Następnego 27484
▁Met 27483
▁niebawem 27481
▁szklan 27480
lały 27479
▁kącie 27475
▁rządem 27475
▁hol 27474
▁Cre 27473
▁udzielił 27471
▁Gun 27470
chą 27467
logicznym 27465
ralnym 27463
▁przyrze 27461
ścili 27460
▁North 27459
▁wspólnym 27455
ńczycy 27453
▁pogodzić 27453
▁sądzisz 27452
▁uniwers 27450
▁wstać 27449
▁zepsu 27449
▁Orze 27445
▁wnętrzu 27444
nicę 27441
▁piwo 27441
▁Macie 27439
▁przyjrzeć 27439
▁wście 27439
▁kres 27435
▁pn 27435
▁usytu 27435
▁niespodziewanie 27432
▁służących 27432
▁założenie 27432
▁Zoba 27431
▁dziej 27430
▁brzę 27427
▁cudzoziem 27423
▁narasta 27423
▁dziecku 27421
▁Maryi 27420
▁podko 27420
▁specyfi 27420
▁stawał 27419
▁ciężkiej 27417
▁podnosząc 27417
▁przyczyna 27417
▁Carlos 27416
▁Dawid 27415
▁ścieżki 27415
cały 27412
▁Arty 27412
▁farmaceu 27411
▁budować 27409
▁kilkudziesięciu 27408
ID 27407
szty 27407
▁dostanie 27407
▁115 27403
▁kandydata 27402
▁najmniejszego 27391
▁poś 27391
▁lot 27389
▁aparatu 27385
ý 27384
▁zauważyłem 27384
▁3- 27379
▁westchnęła 27379
iów 27377
▁rozszerzenie 27375
▁Podniósł 27374
▁Sin 27373
▁baro 27371
▁zarządzenia 27371
ciała 27369
▁potężny 27369
▁protestan 27368
rzo 27366
▁grający 27364
▁wspomniałem 27364
▁Pło 27356
▁POL 27355
▁Miejsca 27354
▁dostępności 27352
▁nieprzyjem 27351
▁badaniach 27350
▁głębiej 27344
▁okupacji 27344
▁macierzy 27341
▁ist 27338
▁bezpie 27337
▁spał 27333
dzamy 27328
jer 27328
▁rachunku 27328
▁Steve 27327
▁zagrał 27325
▁Cur 27321
mujące 27320
▁urodzenia 27320
▁piękną 27318
▁zastosować 27314
▁zgas 27313
▁terapeu 27310
▁Byłoby 27304
▁awan 27304
▁przep 27304
lady 27300
▁sztuce 27297
guje 27295
▁Lang 27292
▁dźwięku 27292
▁odnaj 27288
▁zginęło 27285
▁zatrzymy 27282
głos 27281
▁pomógł 27280
skać 27279
å 27279
▁Działalność 27278
▁lewą 27278
▁starą 27273
▁reak 27269
▁Dobry 27268
▁więzi 27268
▁miejskiej 27264
▁hodow 27263
stia 27258
▁Karl 27258
▁zakwalifik 27255
▁prawidłowo 27250
lińskiego 27247
▁doro 27246
▁katalogu 27246
▁czyste 27244
▁brzmiał 27242
▁CZ 27241
▁uzdrowisk 27241
▁Dę 27240
▁jedzenie 27240
▁biurze 27239
▁przyjem 27236
▁Bał 27233
▁upadł 27233
▁ustawach 27230
▁Dywizji 27229
▁Honor 27228
▁olimpij 27227
▁szam 27227
▁szan 27227
▁Żydzi 27227
▁ofiarą 27222
lista 27221
rzch 27221
atę 27220
▁spotkaniach 27219
▁sukcesy 27217
▁miej 27216
pina 27215
▁Rozpo 27215
▁zabieg 27215
▁atom 27214
dań 27213
▁[[ 27212
▁szkła 27205
▁oz 27204
13) 27201
▁(7 27200
▁inf 27195
terów 27194
niczym 27192
▁Idź 27188
▁środ 27186
▁Wro 27183
▁nadzieją 27178
▁wersję 27175
▁nakry 27173
▁zadu 27171
▁bieżące 27170
▁Ama 27169
▁wielce 27169
▁kapelusz 27166
▁samoloty 27165
liło 27164
▁alarm 27162
szamy 27161
lowa 27158
▁lokalnej 27158
▁firmie 27157
zną 27155
▁pisem 27155
łała 27152
▁podatki 27152
▁Championship 27149
▁przepisie 27144
▁sztyw 27143
ciał 27140
ownego 27139
▁dzien 27138
▁Grab 27137
num 27136
▁zaburzenia 27136
sunęła 27134
▁Teatr 27129
▁General 27126
▁przeli 27123
jskiego 27122
órki 27121
▁gwarant 27121
siłem 27118
▁dojrzał 27117
AF 27113
ū 27112
^^ 27111
▁bytu 27111
▁sektor 27110
▁Łącznie 27106
ctor 27105
▁specjalnej 27104
▁sro 27104
▁nieźle 27099
ica 27098
▁począwszy 27094
ździe 27093
▁udziale 27087
▁uraz 27087
▁Przej 27085
▁otrzymy 27082
▁wyniósł 27081
znę 27080
godzin 27079
żywszy 27079
▁mury 27078
▁czytał 27074
▁Będą 27073
▁autobus 27067
spół 27065
▁słabe 27063
lki 27062
ila 27061
▁zawodnikiem 27060
▁szkolnym 27059
▁emocjona 27056
▁placówkach 27056
▁rolnik 27056
▁burmistrz 27050
▁starań 27049
▁uleg 27046
toni 27043
▁Okres 27043
▁Powoli 27041
▁pełnienia 27040
▁samocho 27040
▁park 27039
wers 27038
▁ważnego 27035
▁gieł 27034
rzyst 27032
prawie 27026
▁obejrzał 27024
▁jakbym 27018
OG 27015
▁Niemcami 27014
▁uzgodnień 27014
▁niew 27013
▁przegląd 27010
▁odwa 27009
racał 27005
▁wyży 27003
▁debacie 27000
▁głoś 26997
▁oddy 26997
▁płk 26995
▁pozbawiony 26990
▁dwudzie 26986
Jo 26984
▁wierzcho 26983
▁() 26981
▁powojen 26981
▁ogrodu 26976
▁Antonio 26975
▁podkre 26973
▁Que 26971
▁niezdo 26971
▁wciąg 26970
▁Całe 26967
▁instalacji 26966
▁przechowy 26966
▁uczniowie 26965
▁zaham 26962
▁Lata 26961
▁opak 26960
▁skreślić 26954
▁Trzeci 26946
▁zapewnił 26940
▁zapisać 26938
▁Zygmunta 26935
▁trzymała 26933
▁osiągnięcie 26926
▁napięcie 26922
dzącego 26921
▁miły 26916
mych 26915
▁całych 26914
▁dzieciństwa 26911
▁słod 26909
stach 26903
▁królestwa 26903
atego 26902
▁silnika 26901
▁rozpę 26898
▁Bądź 26896
▁skomplik 26896
▁naw 26891
▁Zdoby 26890
▁zablok 26887
▁pytaniami 26886
▁prawnik 26885
▁Was 26884
owate 26879
▁Paula 26878
dłem 26876
▁własnymi 26876
bb 26875
▁pokazy 26875
szta 26874
▁sądzić 26874
▁grob 26872
▁prawosław 26872
▁twierdził 26872
▁pomnik 26870
▁powtarzał 26870
▁awansował 26867
▁fol 26865
gowie 26864
б 26860
▁zniknęła 26858
▁pras 26857
▁przewidzianych 26852
▁militar 26851
narod 26843
▁wydaniem 26836
▁nast 26835
▁wywoły 26835
▁10% 26832
▁staną 26825
▁państwami 26823
▁zasięg 26821
biegł 26818
▁Włodzimierz 26818
▁począł 26813
▁umo 26808
stawił 26806
▁muzykę 26802
▁tre 26801
▁otwartych 26800
▁względnie 26799
▁Ano 26798
pha 26794
▁brutto 26792
▁kapitanie 26790
cznikiem 26787
▁siedziba 26784
alności 26783
▁wstrzą 26783
▁nasy 26779
▁ewangeli 26775
▁Igrzyska 26771
▁zaległości 26770
▁rosyjskiego 26767
▁losy 26765
▁odkrył 26765
▁Koście 26760
▁karku 26760
UM 26759
zda 26758
rzucił 26751
▁zimna 26750
▁komendant 26749
▁Bene 26748
▁modli 26746
▁Zgromadzenia 26740
▁Zapom 26739
▁Walter 26734
▁uchwa 26732
▁robię 26726
siedli 26722
▁znaczną 26722
▁Inte 26720
▁najwyższej 26720
▁wykorzystane 26717
▁minęło 26716
tti 26711
▁powróci 26710
'. 26709
ląt 26700
▁Ekonomi 26700
▁wytwarza 26698
▁Wspólnoty 26697
▁Pię 26695
▁Regu 26694
wood 26693
sji 26690
▁nastawi 26690
▁Kr 26687
▁Album 26685
▁Wschodniej 26684
▁Kło 26682
zań 26680
▁stanowiskiem 26680
▁świętych 26674
▁ulg 26673
▁strategi 26672
▁kontraktu 26670
stały 26668
▁dłoniach 26667
wsze 26666
ß 26666
▁kierunki 26663
▁łącznej 26661
▁czarnego 26660
▁ręko 26660
mienne 26655
▁delegacji 26653
▁Teresa 26647
feren 26644
▁kwalifikacje 26644
▁znakiem 26643
ons 26641
▁założyć 26638
▁Policja 26631
▁zastąpi 26627
▁miejscowych 26626
▁szerzej 26626
-50 26625
▁akcję 26625
▁wojewódzkiego 26625
▁zi 26622
rwa 26618
▁przeniesiony 26618
▁zapobiec 26618
▁Urzę 26617
▁otwarta 26616
▁zdarzyć 26616
▁kierownictwo 26614
▁popro 26613
▁wpła 26613
▁zlecenie 26610
▁śladów 26609
▁Zaj 26605
▁zatru 26603
▁budow 26602
▁Bio 26601
▁Obraz 26599
▁Północ 26598
▁używany 26597
▁01 26596
▁procedurę 26592
dona 26590
▁Trój 26588
tyków 26587
▁zależ 26585
▁kierowcy 26581
▁niedzielę 26570
▁powstać 26569
▁urzędnik 26568
nus 26567
▁troski 26567
▁wykazu 26567
dzo 26564
▁gardła 26561
▁potwierdzenie 26554
mione 26549
ust 26547
▁ogrodzie 26546
▁Parku 26543
▁Serce 26540
bój 26539
▁przyznała 26536
▁zabrakło 26536
anny 26535
–1 26534
▁May 26531
▁Zakła 26526
▁stanowiskach 26522
▁zrealiz 26522
atyczna 26520
▁wprowadzony 26519
▁zrealizowane 26519
▁cierpienia 26515
▁cudzoziemców 26513
▁Kli 26511
▁wykona 26506
▁Pamięci 26503
▁Okrę 26500
▁Osiągnięcia 26499
▁sercem 26495
▁obejrzeć 26492
▁dawać 26488
▁zwalczania 26487
ett 26486
▁kolega 26485
wczy 26483
▁Południ 26480
▁Bydgoszcz 26479
▁Rodzina 26479
▁prędkość 26476
▁przyzwycza 26474
▁konkretnego 26472
▁twego 26467
▁zawartej 26466
OC 26462
▁partnerów 26462
], 26461
▁mej 26460
▁ruszyli 26458
▁kodeksu 26457
▁mechanizmy 26456
▁edukacyjnych 26455
▁Top 26452
▁kal 26452
▁Yo 26451
▁czarna 26451
Č 26450
cor 26449
▁odbywać 26449
▁przeczytać 26449
▁medale 26446
▁Pierre 26445
▁Umie 26445
▁przyprowa 26444
dens 26436
▁pracowali 26436
▁wykształcenie 26431
▁obrocie 26430
▁zjawił 26430
jechali 26429
▁istniały 26427
▁wolą 26427
▁uniosła 26426
▁okazały 26421
▁przydzie 26421
▁Cle 26418
▁dydak 26414
▁rozporządzeń 26414
▁znała 26411
▁emocje 26410
▁Bay 26402
▁szale 26402
▁katastrofy 26398
▁Atlan 26396
▁drużynie 26395
▁jezioro 26394
cjal 26391
▁wystar 26389
▁pił 26388
▁rozpatry 26388
▁kłopot 26384
▁dłu 26383
▁marynarki 26383
▁Spar 26381
▁Dio 26380
kos 26376
▁Przykro 26376
▁handlowego 26376
ziem 26370
▁łez 26370
▁Dyrektor 26368
▁Ministerstwem 26367
▁postacie 26365
▁straszne 26365
▁dostosowanie 26364
zan 26360
▁Wisły 26359
▁przejm 26359
arem 26358
▁blu 26354
▁średnie 26353
▁Ciekawe 26352
▁granica 26348
▁zwolnienie 26346
▁zagraniczne 26342
▁ochron 26340
▁promo 26337
▁znasz 26336
▁zbiorów 26334
dis 26333
ślę 26332
▁Spółki 26332
▁terminy 26330
▁usły 26324
lnicy 26321
▁wywołuje 26320
▁3000 26316
▁korzystają 26315
▁nastroju 26312
▁przybli 26311
▁przygotował 26310
▁archi 26302
▁kluby 26300
puje 26299
rony 26299
łuje 26298
▁nabiera 26297
▁spadła 26297
▁Zawo 26293
▁informacją 26293
▁wariant 26293
gląd 26291
▁cywilnych 26289
▁Land 26288
▁padło 26287
▁zachowaniu 26284
miar 26283
▁siłami 26283
▁prost 26282
▁gwałtow 26281
▁medycznego 26280
▁pokryte 26280
▁więź 26280
▁zary 26276
dność 26273
▁traktowania 26273
▁zmianach 26272
ąco 26269
▁103 26269
▁Galeria 26269
▁metalu 26267
▁ponuro 26261
▁wschodu 26261
▁niepewnie 26259
† 26255
▁bos 26255
▁długu 26255
▁wywar 26255
▁rozwiąz 26252
▁wydano 26249
▁planowania 26248
▁senatorowie 26248
▁spełnić 26248
▁urządzenie 26248
▁dostrzega 26247
▁twierdzą 26247
▁zaopatrzenia 26243
▁Tej 26238
▁uzdrowi 26238
▁wor 26236
▁poprosić 26234
▁Ein 26233
dziny 26232
▁kore 26229
▁biurka 26227
▁obcego 26227
▁trójką 26220
▁Chłopiec 26219
▁Wiedniu 26218
▁omawianej 26215
▁skur 26212
▁znaleziono 26211
ziony 26210
▁Rów 26208
▁kompromis 26208
▁dwiema 26207
▁stałych 26207
▁nieszczęście 26204
atami 26202
szcząc 26202
▁modlitwy 26200
▁ścianą 26194
▁cich 26190
▁przery 26188
▁Try 26186
iro 26183
▁jednozna 26182
▁towarzystwo 26182
▁emery 26180
gane 26178
▁Sek 26178
▁Lui 26177
▁oprzeć 26177
▁skarbowych 26177
jął 26174
▁waszej 26174
WI 26173
▁Wierz 26173
▁sob 26172
▁teksty 26167
wak 26159
▁kłę 26155
▁nabycia 26155
▁personelu 26153
▁Pos 26152
▁dostępnych 26146
ile 26145
▁naturalnych 26143
▁dofinans 26142
▁obwodzie 26141
▁wodne 26141
▁członkowskie 26139
twie 26137
▁wach 26134
▁zdjął 26131
▁pójdę 26130
▁uz 26129
▁mieszkalnych 26125
▁traw 26125
▁zmniejsza 26124
▁tworzeniu 26123
▁litery 26122
▁rozumu 26120
mentach 26119
▁wspominał 26119
▁klęski 26118
▁maleń 26116
▁Chodziło 26112
▁decyd 26112
▁przegłos 26110
siad 26106
▁pokonał 26105
▁asy 26104
▁norma 26104
‡ 26100
▁sesji 26100
▁powodzenia 26099
łod 26098
▁imprezy 26096
▁Pięć 26091
▁pojawiło 26088
▁baron 26080
▁dziadek 26079
▁mniejszym 26079
▁Antoniego 26076
▁wybrzeża 26075
sey 26073
▁oszac 26069
▁Państwowego 26067
▁cienia 26067
▁wygra 26067
▁krajowym 26064
▁libera 26064
▁mówiłam 26062
▁Wiel 26059
daje 26058
pus 26056
▁podziale 26056
▁odpar 26054
▁sądem 26054
▁oboję 26051
niemie 26050
▁Specjal 26046
▁traktat 26045
▁owoce 26044
▁pojechał 26044
▁zadał 26044
▁zębami 26044
ręcz 26043
▁Ada 26041
▁Złoto 26040
▁PL 26036
▁zabud 26032
▁Fra 26030
▁filmowy 26030
▁polityką 26029
ceae 26028
▁omawia 26023
bione 26019
▁Lord 26018
IP 26016
▁Noc 26016
▁przyjacielu 26014
▁KR 26007
▁idąc 26005
▁Zer 26001
▁uwa 26001
▁debata 26000
▁zewnętrzne 26000
▁Lou 25998
rzoną 25997
nnym 25996
▁Wiedziała 25995
▁nawo 25995
▁protokołu 25993
▁genera 25992
lizowana 25989
▁dotyczącymi 25987
▁Występuje 25986
▁Uważa 25983
organi 25982
▁bezpośredni 25981
▁państwowym 25980
▁Fakt 25979
nieni 25975
tre 25971
ан 25970
▁Wasza 25970
▁rozgrywkach 25968
▁Marie 25966
▁odcho 25966
▁drukar 25964
▁procedowania 25964
▁wspierania 25963
▁Carl 25961
▁podpisy 25959
▁konkursie 25957
▁Wym 25953
▁Federacji 25949
▁nomina 25949
▁zachor 25948
łos 25941
▁sztabu 25941
▁świadomie 25941
▁organizacjami 25939
bior 25938
cznością 25938
▁Krak 25938
▁komitetu 25938
▁spra 25938
▁Jakuba 25936
▁Jezu 25932
▁średnia 25932
▁Pytam 25927
róciłem 25926
▁rozmaite 25926
▁poniosła 25919
rzystów 25918
▁udzielanie 25914
▁wchodzić 25914
▁Premierze 25910
twy 25909
▁zaczynał 25908
▁redakcji 25902
▁schody 25901
▁podob 25900
▁lokalizacji 25895
▁narusza 25894
▁obwie 25892
▁dochodach 25890
▁1916 25888
▁glob 25888
▁prasie 25887
▁szczo 25883
Ć 25882
▁100% 25882
▁naciśnięcie 25882
г 25880
▁indywidu 25877
▁wstała 25877
▁Głównej 25875
▁akcja 25873
▁instytucjach 25873
▁nauczyciele 25870
mali 25868
▁czterdzie 25868
▁nadzieje 25864
▁WY 25863
▁teoria 25863
▁odbywały 25849
▁chmur 25848
▁Wschód 25845
▁otrzymaliśmy 25845
▁apel 25843
▁kost 25841
▁Most 25838
dzieć 25837
kamy 25837
andra 25836
hel 25836
▁zechciał 25834
trą 25829
▁th 25829
▁obwo 25828
stawa 25825
bol 25823
▁przewagę 25822
▁budowlanego 25813
▁chwile 25810
▁przycze 25809
▁oboz 25808
▁skrzydeł 25802
▁Zachodniej 25801
▁trzydzie 25801
▁niemiecka 25800
lian 25797
▁niewielkim 25797
pur 25794
tany 25794
kacji 25792
▁człowie 25789
▁urlopu 25779
▁powstają 25774
▁wyst 25773
usia 25772
▁oknem 25770
syn 25769
▁21, 25768
▁niewolni 25768
▁użytkowników 25765
burgu 25763
▁Eri 25762
▁zdawała 25759
▁Młody 25758
▁obce 25758
▁pilota 25758
▁dno 25756
▁inicjatywę 25755
▁okrzyk 25752
▁łam 25750
▁Poto 25749
▁błyskawicznie 25745
TY 25744
▁fazy 25744
▁pierw 25743
▁najlepszego 25740
▁imperium 25738
▁niespodzi 25736
wasz 25734
▁108 25734
▁zaopini 25733
▁Podział 25728
▁produ 25728
▁Bogdan 25727
jedno 25721
noty 25721
▁powiąz 25718
▁przebudowy 25715
tło 25711
day 25710
▁wyglądały 25708
▁powierzch 25707
▁wpu 25707
▁Celnej 25706
▁kierowców 25705
▁den 25704
▁istotę 25704
▁posiadłości 25701
▁regionów 25701
anowskiego 25700
▁objąć 25699
▁spotyk 25697
▁wytłuma 25697
▁zwracał 25696
▁papierów 25695
▁skoru 25695
▁nader 25694
▁rozbudowy 25693
▁mag 25688
mujących 25685
▁bibliote 25684
▁przerwała 25682
▁zaro 25681
▁radia 25680
NI 25678
▁Pitt 25678
▁leżą 25678
▁Afryce 25677
▁mechanizmu 25675
▁brzu 25674
▁przepro 25670
▁22, 25669
▁pojazd 25663
▁rekru 25663
▁ważniejsze 25661
▁wprowadzania 25661
▁powa 25660
NY 25659
▁uczyni 25655
kłada 25654
▁apo 25653
▁kuchen 25650
▁bitwa 25649
▁ocie 25648
gnąć 25647
▁wiernych 25647
▁zajmie 25646
▁wyz 25643
aktyw 25642
▁Wysp 25642
stanu 25639
tzw 25637
▁waha 25637
▁zaczęto 25637
▁otrzymania 25636
▁Paris 25635
▁przek 25635
▁Odw 25631
▁dwudziesto 25629
▁potu 25627
▁wydanych 25627
▁KM 25626
▁miliardów 25626
▁uniemożliwia 25626
wcze 25625
▁Susan 25625
▁Szkole 25624
▁20% 25620
stąpił 25619
▁wiedziałam 25617
▁pomarańcz 25608
czaka 25607
▁europejskiego 25604
▁znajomość 25601
▁izb 25599
rób 25595
niosłem 25592
▁zloka 25592
▁OP 25591
▁centralnego 25588
▁wyje 25582
▁turystyki 25581
chyliła 25579
▁Gdybyśmy 25575
▁wozu 25575
▁angielskiego 25573
▁klini 25572
▁Fundacji 25568
▁Restruktury 25568
▁Mecz 25564
▁planach 25561
▁łaska 25561
enty 25560
▁żywe 25560
▁rozko 25555
▁poznaw 25554
▁Izrael 25548
▁Ści 25546
▁dodaje 25545
▁Muzy 25543
▁ramieniem 25543
NIE 25542
▁wyląd 25542
▁Pier 25538
▁marzenia 25538
▁zapozna 25535
berga 25534
▁kolejowy 25534
▁pomie 25534
▁wojewódzkie 25534
▁zboża 25533
▁Lie 25532
▁przym 25532
▁osiedla 25530
▁Medy 25527
▁powiado 25527
czen 25526
niętymi 25522
▁Turcji 25522
▁zrezygnował 25519
▁podkomisja 25517
▁wymogi 25513
bet 25512
▁Wscho 25512
▁sklep 25512
▁chciało 25511
▁Ky 25509
burga 25504
▁możliwością 25502
▁osiąga 25502
▁tom 25500
▁nauce 25498
▁odnale 25497
gran 25496
DzU 25491
zione 25491
▁wyż 25491
▁Dość 25490
▁powtarzam 25490
▁Kil 25489
▁Woło 25489
▁zawodni 25484
?” 25482
logicznie 25480
▁światłem 25479
▁innowa 25477
▁McC 25476
▁uzupełnienia 25474
▁medyczne 25469
loga 25461
▁cmentarz 25459
▁konsekwencją 25457
spi 25454
▁Św 25454
▁Najświętszej 25453
▁zajmując 25448
lizowania 25446
▁Japo 25444
uj 25443
▁Śmierć 25443
fik 25440
▁lep 25433
▁niewielu 25430
▁Kolejny 25428
▁deklar 25427
▁polegać 25427
▁sejmowych 25427
▁odchodzi 25426
▁gdybyś 25424
▁nym 25421
▁głosami 25419
termin 25417
nikom 25414
▁powtórzyć 25413
▁produkt 25413
▁Gdańska 25408
▁Ciebie 25407
▁stanowiących 25406
▁zgodą 25402
128 25399
▁podłogi 25398
▁Zwycięzca 25397
letnia 25396
IK 25394
:20 25393
▁przyro 25393
▁dziad 25391
▁znie 25388
▁kompeten 25387
▁różnym 25387
▁zaprowa 25384
▁kochał 25380
▁ksiąg 25377
▁ratu 25375
▁Jeff 25373
▁szpital 25372
▁izrael 25368
▁pokonać 25368
▁Archi 25360
▁ratyfikacji 25356
▁terminów 25354
▁usiłując 25352
–17 25351
▁sprawności 25350
▁Jakiś 25348
▁orzeczenie 25348
▁czytamy 25347
▁depu 25347
▁zadowoleniem 25346
▁edycji 25344
▁Wiatr 25343
▁pozwolenia 25343
▁Cieszę 25341
▁warstwy 25340
▁stoliku 25339
▁medycznej 25338
▁piłce 25336
▁dysk 25328
▁Zawa 25324
ac 25323
▁Agnieszka 25323
▁odzyskać 25320
kas 25315
janie 25312
▁red 25312
▁wpatrywał 25311
▁Cro 25310
▁pieniężnych 25310
▁Karta 25309
▁Panna 25307
▁zapoznać 25307
▁podstawową 25306
mierza 25303
▁znaku 25303
karza 25302
niesiono 25299
▁Organi 25298
▁poproszę 25296
▁Szczecinie 25293
▁zao 25293
▁weźmie 25292
▁boję 25290
pil 25289
17, 25287
▁stosowanych 25287
tyn 25285
▁Pom 25278
▁aresztowany 25276
▁sekre 25276
▁fran 25270
▁obiecał 25267
dycja 25266
tyj 25263
▁tysiąca 25263
▁wdrażania 25262
▁obrońcy 25261
▁wydawane 25258
▁Koniec 25256
▁biegiem 25255
▁aspekt 25254
▁powtórzyła 25253
▁as 25252
▁skło 25248
▁trudny 25247
▁Zbyt 25246
▁don 25246
▁sznu 25245
▁Jed 25243
▁waszych 25238
świet 25237
▁najpięk 25237
▁respek 25232
▁Polak 25230
▁rą 25230
▁wnik 25227
▁wycho 25224
wców 25222
▁potężne 25222
Lo 25219
▁proce 25219
▁częściach 25218
▁domowej 25218
▁Spółka 25217
▁uwzględnić 25217
▁ranny 25216
ckimi 25215
▁db 25215
▁prowadząc 25210
▁2:1 25209
▁moimi 25209
niany 25208
ższy 25208
▁pojedyn 25204
świe 25199
erson 25198
▁Słyszałem 25196
▁(2) 25195
▁straciła 25195
▁działaczy 25193
nicki 25190
▁107 25190
pane 25184
▁zamknięty 25184
▁niezgodne 25182
▁wahania 25181
▁kolejowego 25180
▁pasy 25176
▁zadowo 25176
▁London 25174
▁głupie 25174
manie 25170
▁zajęli 25168
▁Naturalnie 25166
▁Emil 25165
▁błędu 25160
▁mio 25156
▁batalionu 25150
▁młodej 25150
▁zakończone 25150
▁Odpowiedź 25148
▁pozostawiając 25145
▁101 25143
▁Robo 25136
▁kultu 25135
▁rozwojem 25134
▁bab 25133
▁omal 25132
▁zostałem 25131
▁partie 25130
▁motywa 25127
▁swobody 25127
▁wzrostem 25126
▁Zale 25125
niczego 25122
▁przyniesie 25121
sława 25120
▁etat 25120
żyłam 25119
▁obrzę 25119
▁zeszłym 25119
▁gł 25116
▁klubowa 25115
▁członkom 25114
▁przeno 25114
pty 25112
▁pięćdziesięciu 25112
▁śmiertel 25112
▁106 25111
▁bezrobo 25111
▁konkretnej 25110
▁bramę 25109
▁dawne 25105
▁Taj 25104
▁przybyli 25104
znak 25103
▁określona 25102
▁przeznaczono 25100
▁ap 25099
▁średniowie 25097
gres 25095
▁indywidualnie 25095
▁zrobimy 25095
▁Wyższej 25091
lyn 25087
▁odez 25087
▁kpt 25085
▁Radiofonii 25078
▁odbywają 25075
▁OS 25069
▁tymczas 25069
▁inicjatywa 25068
▁spółkach 25065
18, 25064
▁wskazu 25063
▁zostają 25062
letu 25055
▁szczególnego 25055
stępuje 25052
▁regulacja 25051
▁zastępcy 25050
▁Poru 25048
▁Doskonale 25044
▁Ford 25042
urt 25038
▁uprzednio 25038
▁pozwoliła 25036
udi 25034
letnich 25033
▁podatnika 25033
▁ćwiczeń 25033
▁kierowane 25032
▁kolacji 25030
▁powszechne 25026
▁wszyst 25026
▁Szar 25025
▁szo 25020
▁rolnictwo 25016
+1 25014
▁zaszczy 25014
▁tytułów 25012
▁jedwab 25010
▁skóra 25010
▁niewłaści 25008
▁emerytalnego 25004
▁wnętrze 25003
▁iden 25001
▁zrów 25001
▁porówny 25000
[...]
